const unsigned char trained_tflite[] = {
  0x20, 0x00, 0x00, 0x00, 0x54, 0x46, 0x4c, 0x33, 0x00, 0x00, 0x00, 0x00,
  0x00, 0x00, 0x12, 0x00, 0x1c, 0x00, 0x18, 0x00, 0x14, 0x00, 0x10, 0x00,
  0x0c, 0x00, 0x08, 0x00, 0x00, 0x00, 0x04, 0x00, 0x12, 0x00, 0x00, 0x00,
  0x18, 0x00, 0x00, 0x00, 0x48, 0x00, 0x00, 0x00, 0x30, 0x08, 0x00, 0x00,
  0x40, 0x08, 0x00, 0x00, 0x9c, 0x1e, 0x00, 0x00, 0x03, 0x00, 0x00, 0x00,
  0x01, 0x00, 0x00, 0x00, 0x0c, 0x00, 0x00, 0x00, 0x08, 0x00, 0x0c, 0x00,
  0x08, 0x00, 0x04, 0x00, 0x08, 0x00, 0x00, 0x00, 0x18, 0x00, 0x00, 0x00,
  0x04, 0x00, 0x00, 0x00, 0x13, 0x00, 0x00, 0x00, 0x6d, 0x69, 0x6e, 0x5f,
  0x72, 0x75, 0x6e, 0x74, 0x69, 0x6d, 0x65, 0x5f, 0x76, 0x65, 0x72, 0x73,
  0x69, 0x6f, 0x6e, 0x00, 0x19, 0x00, 0x00, 0x00, 0xe4, 0x07, 0x00, 0x00,
  0xdc, 0x07, 0x00, 0x00, 0xc4, 0x07, 0x00, 0x00, 0x94, 0x07, 0x00, 0x00,
  0x44, 0x07, 0x00, 0x00, 0x24, 0x07, 0x00, 0x00, 0xd4, 0x03, 0x00, 0x00,
  0x8c, 0x02, 0x00, 0x00, 0xfc, 0x00, 0x00, 0x00, 0xdc, 0x00, 0x00, 0x00,
  0xbc, 0x00, 0x00, 0x00, 0x9c, 0x00, 0x00, 0x00, 0x7c, 0x00, 0x00, 0x00,
  0x74, 0x00, 0x00, 0x00, 0x6c, 0x00, 0x00, 0x00, 0x64, 0x00, 0x00, 0x00,
  0x5c, 0x00, 0x00, 0x00, 0x54, 0x00, 0x00, 0x00, 0x4c, 0x00, 0x00, 0x00,
  0x44, 0x00, 0x00, 0x00, 0x3c, 0x00, 0x00, 0x00, 0x34, 0x00, 0x00, 0x00,
  0x2c, 0x00, 0x00, 0x00, 0x24, 0x00, 0x00, 0x00, 0x04, 0x00, 0x00, 0x00,
  0xe2, 0xf7, 0xff, 0xff, 0x04, 0x00, 0x00, 0x00, 0x10, 0x00, 0x00, 0x00,
  0x31, 0x2e, 0x35, 0x2e, 0x30, 0x00, 0x00, 0x00, 0x00, 0x00, 0x00, 0x00,
  0x00, 0x00, 0x00, 0x00, 0x20, 0xe3, 0xff, 0xff, 0x24, 0xe3, 0xff, 0xff,
  0x28, 0xe3, 0xff, 0xff, 0x2c, 0xe3, 0xff, 0xff, 0x30, 0xe3, 0xff, 0xff,
  0x34, 0xe3, 0xff, 0xff, 0x38, 0xe3, 0xff, 0xff, 0x3c, 0xe3, 0xff, 0xff,
  0x40, 0xe3, 0xff, 0xff, 0x44, 0xe3, 0xff, 0xff, 0x48, 0xe3, 0xff, 0xff,
  0x2a, 0xf8, 0xff, 0xff, 0x04, 0x00, 0x00, 0x00, 0x10, 0x00, 0x00, 0x00,
  0x01, 0x00, 0x00, 0x00, 0x19, 0x00, 0x00, 0x00, 0x01, 0x00, 0x00, 0x00,
  0x10, 0x00, 0x00, 0x00, 0x46, 0xf8, 0xff, 0xff, 0x04, 0x00, 0x00, 0x00,
  0x10, 0x00, 0x00, 0x00, 0x01, 0x00, 0x00, 0x00, 0x01, 0x00, 0x00, 0x00,
  0x19, 0x00, 0x00, 0x00, 0x08, 0x00, 0x00, 0x00, 0x62, 0xf8, 0xff, 0xff,
  0x04, 0x00, 0x00, 0x00, 0x10, 0x00, 0x00, 0x00, 0x01, 0x00, 0x00, 0x00,
  0x32, 0x00, 0x00, 0x00, 0x01, 0x00, 0x00, 0x00, 0x08, 0x00, 0x00, 0x00,
  0x7e, 0xf8, 0xff, 0xff, 0x04, 0x00, 0x00, 0x00, 0x10, 0x00, 0x00, 0x00,
  0x01, 0x00, 0x00, 0x00, 0x01, 0x00, 0x00, 0x00, 0x32, 0x00, 0x00, 0x00,
  0x0d, 0x00, 0x00, 0x00, 0x9a, 0xf8, 0xff, 0xff, 0x04, 0x00, 0x00, 0x00,
  0x80, 0x01, 0x00, 0x00, 0xbd, 0x81, 0x0f, 0x30, 0xdc, 0xbf, 0xb9, 0x93,
  0x18, 0xbc, 0x0e, 0xe4, 0xb4, 0x04, 0xe4, 0xba, 0xe0, 0xf9, 0xef, 0xe2,
  0x76, 0x05, 0x07, 0xc8, 0xf4, 0x07, 0x81, 0xfc, 0xec, 0xfe, 0x15, 0xfe,
  0xeb, 0xf8, 0xf9, 0xf0, 0xe7, 0x01, 0xfe, 0xf2, 0xdb, 0xdf, 0x04, 0x1f,
  0xf1, 0x03, 0x04, 0xd6, 0xc2, 0xf8, 0xa1, 0xe9, 0x9a, 0x12, 0xfc, 0xfd,
  0x0c, 0xe0, 0xed, 0x72, 0xa1, 0x05, 0x16, 0xe8, 0xd0, 0x81, 0x02, 0xca,
  0xe8, 0xd9, 0xca, 0xd9, 0x02, 0xeb, 0xfe, 0xee, 0x11, 0x30, 0xfc, 0xf1,
  0xd7, 0x81, 0x06, 0xed, 0x0c, 0xf2, 0xfe, 0xc8, 0xdb, 0x9b, 0x10, 0x0e,
  0xfc, 0x03, 0x00, 0xa8, 0x19, 0xf2, 0x12, 0xcb, 0x1f, 0xe3, 0xaa, 0x10,
  0x06, 0xdf, 0x04, 0xdc, 0xed, 0xe1, 0xc4, 0xe8, 0xf9, 0x81, 0x04, 0x36,
  0xe5, 0x11, 0x00, 0x9c, 0xf4, 0xf5, 0xf2, 0x15, 0xfc, 0x0c, 0x1d, 0xec,
  0x07, 0xb7, 0xfd, 0xf6, 0xed, 0xfb, 0x08, 0xa7, 0xe3, 0x81, 0x19, 0x03,
  0xf1, 0xff, 0xe5, 0xc7, 0xfe, 0xe8, 0x0d, 0xfe, 0x01, 0xe5, 0x81, 0xf5,
  0x04, 0xfa, 0xff, 0xee, 0x01, 0xbb, 0xc8, 0xf1, 0x06, 0x06, 0x00, 0xb1,
  0xf7, 0xc0, 0xda, 0x20, 0xf1, 0x91, 0xf9, 0xf9, 0xe8, 0x02, 0xeb, 0xd6,
  0xfd, 0x86, 0xf1, 0xfe, 0xe2, 0x02, 0xf2, 0x91, 0xfd, 0xb6, 0xf3, 0x17,
  0xe9, 0x0c, 0x1f, 0x81, 0xd5, 0xf7, 0x49, 0xe9, 0x0e, 0x43, 0xf0, 0xe7,
  0xc3, 0xd0, 0xf8, 0xf0, 0xe4, 0xdf, 0xe1, 0xfe, 0xc7, 0xf0, 0x01, 0xef,
  0xd1, 0xce, 0x81, 0x08, 0xef, 0xc5, 0xf4, 0x20, 0xee, 0x2c, 0xfc, 0xd4,
  0xe7, 0xa1, 0x0d, 0x09, 0xfe, 0xf3, 0xf3, 0xa7, 0xee, 0x95, 0x19, 0xf4,
  0x07, 0xd5, 0x81, 0x04, 0x0a, 0x81, 0xfe, 0x05, 0x1f, 0xdf, 0xc4, 0xbc,
  0xff, 0x95, 0xe1, 0x33, 0xf7, 0x02, 0xd8, 0xc6, 0x08, 0xd9, 0xc7, 0x05,
  0x2e, 0x21, 0x2e, 0xc9, 0xe7, 0xfc, 0x95, 0x8d, 0xca, 0x81, 0xfb, 0x0b,
  0xf7, 0x12, 0x93, 0xac, 0xea, 0x8b, 0xf7, 0x00, 0xdc, 0x08, 0x85, 0xa6,
  0xf5, 0x9d, 0xfb, 0xff, 0xfb, 0xf9, 0x81, 0xe1, 0xfc, 0x1e, 0x10, 0xf4,
  0xed, 0xf6, 0xbb, 0xed, 0xed, 0xed, 0x08, 0xe6, 0xff, 0xda, 0x3d, 0xf6,
  0xe2, 0x3b, 0xe3, 0xe0, 0xa6, 0x89, 0xfc, 0x11, 0x81, 0xe1, 0x90, 0x8f,
  0xdc, 0x98, 0x01, 0x04, 0xd3, 0xbb, 0xbc, 0xb7, 0xed, 0xd8, 0x13, 0xe1,
  0x32, 0xfd, 0xd8, 0xde, 0x93, 0xa2, 0x08, 0x2f, 0xeb, 0xad, 0xaa, 0xae,
  0x02, 0xbb, 0x15, 0xcb, 0x0b, 0xe6, 0x81, 0xf2, 0x13, 0xe3, 0xf7, 0xa3,
  0x0d, 0x3f, 0xde, 0xe9, 0x64, 0xe5, 0xf0, 0x0d, 0xde, 0xf0, 0xd9, 0xde,
  0x20, 0xf1, 0xec, 0xe7, 0xe0, 0xd9, 0xeb, 0xe7, 0x54, 0x02, 0x81, 0x0f,
  0xe8, 0xe0, 0x37, 0x19, 0x26, 0xfa, 0xff, 0xff, 0x04, 0x00, 0x00, 0x00,
  0x38, 0x01, 0x00, 0x00, 0x52, 0xed, 0x48, 0x18, 0x03, 0xe8, 0xfb, 0x0e,
  0x09, 0x0a, 0xff, 0x07, 0x07, 0x2d, 0xca, 0xba, 0xd8, 0xf7, 0x01, 0xeb,
  0xf4, 0xf6, 0xfe, 0x07, 0x00, 0x10, 0x81, 0x3a, 0x30, 0x0d, 0x09, 0x08,
  0xf0, 0xe4, 0x05, 0xf3, 0xe8, 0x08, 0xf7, 0x81, 0xf6, 0x18, 0x04, 0x11,
  0x06, 0xf5, 0xea, 0x09, 0x0c, 0xf4, 0x0a, 0xf8, 0x82, 0xf0, 0x00, 0xff,
  0x0b, 0x0a, 0x0e, 0xfe, 0xf8, 0xf3, 0xe9, 0xfc, 0xf8, 0x92, 0xe7, 0x04,
  0x02, 0x14, 0xf6, 0xff, 0xfb, 0x00, 0x0b, 0x1c, 0x09, 0x02, 0x71, 0xd9,
  0xe6, 0xb6, 0xd6, 0x05, 0x4f, 0x62, 0xd5, 0xd9, 0xfe, 0xf1, 0x00, 0x59,
  0xd1, 0xcd, 0xf6, 0xaa, 0x3b, 0x6c, 0xfa, 0xe2, 0x22, 0x13, 0xaf, 0x30,
  0x7f, 0xa2, 0x1f, 0x18, 0x90, 0x4e, 0x57, 0x00, 0x11, 0x29, 0xee, 0xcd,
  0x0e, 0xdf, 0x7f, 0x92, 0x4f, 0x32, 0xbb, 0xe7, 0x18, 0x08, 0x3f, 0xf4,
  0xd5, 0x10, 0xdd, 0x40, 0x88, 0x37, 0xee, 0xda, 0x07, 0x08, 0x11, 0x25,
  0xc0, 0x1f, 0xfc, 0x09, 0x15, 0xaa, 0xf9, 0x05, 0x3c, 0xf9, 0x06, 0x53,
  0xf2, 0xcd, 0x22, 0xee, 0x22, 0xd6, 0x45, 0x15, 0x82, 0x0b, 0x0f, 0xf1,
  0x21, 0xf4, 0xef, 0x0e, 0xff, 0xfc, 0xff, 0x6c, 0x16, 0x8d, 0x05, 0xd3,
  0x07, 0x2f, 0x00, 0xfe, 0x0d, 0x12, 0xeb, 0x11, 0x7f, 0x12, 0x99, 0x04,
  0xa7, 0xe3, 0xf3, 0xf4, 0xf3, 0x35, 0x07, 0x1e, 0x74, 0x7f, 0xe8, 0x08,
  0xd1, 0x9b, 0xff, 0xf2, 0xff, 0x23, 0xf9, 0x16, 0x2c, 0x65, 0x69, 0xdd,
  0x2d, 0xb3, 0xad, 0xfb, 0xfc, 0xeb, 0x10, 0xfd, 0x00, 0x4b, 0x5a, 0x5a,
  0x11, 0xf5, 0xc0, 0xd5, 0x0d, 0xc6, 0xe2, 0x11, 0xf6, 0x15, 0x81, 0x35,
  0xf8, 0x00, 0x20, 0xef, 0xe5, 0xfd, 0xf7, 0x08, 0x04, 0x13, 0xee, 0xb5,
  0x49, 0x0c, 0xfb, 0x00, 0x11, 0xf1, 0x00, 0xfe, 0x0d, 0x17, 0x00, 0x02,
  0xcd, 0x7c, 0x07, 0x23, 0x07, 0xcf, 0xe8, 0xfa, 0xfd, 0x1d, 0x0e, 0xee,
  0xff, 0x81, 0x26, 0x2a, 0x13, 0x14, 0x11, 0x17, 0x1b, 0x15, 0xfd, 0xff,
  0xf5, 0xfc, 0xa0, 0xd3, 0xfe, 0xfb, 0xf2, 0xf9, 0x07, 0xf8, 0xfb, 0x01,
  0x06, 0xfb, 0x15, 0xf3, 0x93, 0x1e, 0xef, 0x0b, 0x04, 0x06, 0x06, 0x09,
  0x06, 0xf6, 0xfd, 0x04, 0x6a, 0xfb, 0xff, 0xff, 0x04, 0x00, 0x00, 0x00,
  0x40, 0x03, 0x00, 0x00, 0xec, 0x0b, 0xe0, 0x2b, 0xe0, 0x30, 0xf6, 0xec,
  0xf8, 0xd4, 0x06, 0xf7, 0x17, 0xe0, 0xfe, 0x08, 0xeb, 0xf9, 0xfd, 0x1d,
  0xe3, 0x27, 0xe9, 0xf6, 0x1e, 0x34, 0xee, 0xfe, 0x16, 0xed, 0xed, 0x08,
  0xc4, 0xf9, 0xe8, 0x21, 0xe5, 0x18, 0xff, 0xf9, 0x1c, 0x21, 0xe0, 0xff,
  0x12, 0xbc, 0xdb, 0xf8, 0xe7, 0x0b, 0xf8, 0x20, 0xee, 0x15, 0xfe, 0xfe,
  0x1d, 0x1d, 0xdf, 0x03, 0x1e, 0xc2, 0xc7, 0xef, 0xde, 0x0c, 0xec, 0x19,
  0x02, 0x20, 0x24, 0xe5, 0x21, 0x23, 0xed, 0xff, 0x29, 0xda, 0xdf, 0xee,
  0xc8, 0x15, 0xe4, 0x17, 0xeb, 0x22, 0x23, 0xf4, 0x1a, 0x17, 0xda, 0x23,
  0x1b, 0xd1, 0xe9, 0xfc, 0xdc, 0x03, 0xf1, 0x1c, 0x08, 0x1b, 0x1b, 0xef,
  0x35, 0x1e, 0xd4, 0x03, 0x19, 0xc8, 0xef, 0xf8, 0xdf, 0xfa, 0xf9, 0x1b,
  0xf0, 0x17, 0x14, 0xff, 0x19, 0x25, 0xdb, 0xea, 0x22, 0xc8, 0xdd, 0xfe,
  0xeb, 0xf4, 0xda, 0x1a, 0xee, 0xfe, 0x13, 0xee, 0x1c, 0x1b, 0xc9, 0xed,
  0x06, 0xe5, 0xd5, 0xfd, 0xcb, 0xf0, 0xed, 0x17, 0xef, 0x1b, 0x18, 0xe4,
  0x13, 0x0a, 0xce, 0xf8, 0x19, 0xcf, 0xde, 0xf9, 0xef, 0xd9, 0xcb, 0x1c,
  0xf9, 0xfb, 0x1e, 0xdb, 0x29, 0x18, 0xdc, 0xf5, 0x13, 0xf7, 0xde, 0x00,
  0xf5, 0xec, 0xbc, 0x07, 0xee, 0x15, 0xfc, 0xe8, 0x1f, 0x09, 0xdc, 0x03,
  0x15, 0xa1, 0xda, 0x1d, 0xfc, 0x0c, 0xfb, 0x05, 0x19, 0x05, 0xff, 0xdd,
  0x19, 0x1e, 0xfa, 0xfc, 0xf2, 0xee, 0xd5, 0xfb, 0xe5, 0x1f, 0x47, 0x02,
  0xcd, 0x1d, 0x00, 0xf3, 0xd1, 0x44, 0xef, 0x11, 0xf6, 0x32, 0xcf, 0x0d,
  0x18, 0x25, 0x21, 0x03, 0xd3, 0x18, 0xee, 0xf9, 0xf3, 0x27, 0xf8, 0x13,
  0xfc, 0x37, 0x20, 0xfd, 0x27, 0x1d, 0x1f, 0x0b, 0xe4, 0x14, 0xed, 0xef,
  0xee, 0x1b, 0xfc, 0x07, 0xf0, 0x2c, 0x22, 0xfb, 0x22, 0x2e, 0x26, 0x07,
  0x02, 0x1e, 0xec, 0xec, 0xe5, 0x1d, 0x04, 0x01, 0x02, 0x31, 0x29, 0xfd,
  0x23, 0x25, 0x25, 0xfc, 0xf4, 0x20, 0xfd, 0xf9, 0xe2, 0x21, 0x0e, 0x03,
  0x0c, 0x31, 0x36, 0xf3, 0x29, 0x23, 0x2b, 0xfb, 0xe1, 0x12, 0xef, 0x04,
  0xfa, 0x1e, 0x02, 0x06, 0xf9, 0x3a, 0x31, 0xf0, 0x22, 0x16, 0x2c, 0xf8,
  0xff, 0x1f, 0xef, 0xfb, 0xe8, 0x18, 0x0b, 0x05, 0xf3, 0x25, 0x2b, 0xea,
  0x1f, 0x22, 0x3c, 0xf4, 0xf3, 0x1c, 0x02, 0xf3, 0xeb, 0x1e, 0x02, 0x06,
  0x00, 0x34, 0x23, 0xef, 0x2e, 0x2d, 0x2f, 0x03, 0xf4, 0x17, 0x06, 0xdc,
  0xec, 0x0c, 0x0a, 0x04, 0xef, 0x26, 0x29, 0x01, 0x25, 0x1c, 0x15, 0xf9,
  0xfd, 0x22, 0x08, 0xf5, 0xe9, 0x05, 0x0f, 0x08, 0xea, 0x29, 0x3a, 0xe8,
  0x1e, 0x07, 0x22, 0xea, 0xe2, 0x16, 0x10, 0xe7, 0xf6, 0x1c, 0x0b, 0xff,
  0xdc, 0x38, 0x20, 0xf3, 0x22, 0x1c, 0x14, 0xff, 0x03, 0x1a, 0x0c, 0xdc,
  0xed, 0x10, 0x03, 0x04, 0x25, 0x41, 0x29, 0x01, 0x35, 0xf9, 0x27, 0xfe,
  0x19, 0x1d, 0x2d, 0xe4, 0x18, 0x2b, 0x0e, 0xfe, 0xf2, 0x55, 0x4c, 0x02,
  0xe0, 0xe4, 0xf8, 0xd9, 0x20, 0xb2, 0xfd, 0x0d, 0x2c, 0x06, 0x1e, 0xcf,
  0xbf, 0xe7, 0x2c, 0x0f, 0xd2, 0xe2, 0xb8, 0xb2, 0x0a, 0xeb, 0x0b, 0xec,
  0xdb, 0xb2, 0x0d, 0xd6, 0xda, 0xd1, 0xe8, 0x1c, 0xdc, 0xda, 0xe8, 0xc0,
  0xfd, 0xa7, 0x17, 0xc1, 0xb0, 0xd4, 0xf3, 0xf2, 0xe2, 0xf5, 0xe8, 0x26,
  0xf0, 0xf8, 0xb8, 0xb2, 0x04, 0xac, 0x04, 0xeb, 0xcb, 0x90, 0xde, 0x04,
  0xcb, 0x0c, 0xd4, 0x20, 0xb6, 0xf6, 0xeb, 0xb0, 0xff, 0xc8, 0x04, 0xd4,
  0xbd, 0xac, 0xd4, 0xe6, 0xd5, 0xc8, 0xa3, 0x1d, 0xd5, 0xe0, 0xc6, 0xc3,
  0xe0, 0xd3, 0xf0, 0xba, 0xc8, 0x9e, 0xd6, 0xef, 0xc8, 0xe0, 0xa6, 0x1a,
  0xc8, 0xc7, 0xbe, 0xaa, 0xe9, 0xa7, 0x0e, 0xb8, 0xb7, 0xa2, 0xd7, 0xe6,
  0xc3, 0xb7, 0xd9, 0x17, 0xf6, 0xf9, 0xd1, 0xb9, 0xfe, 0xad, 0xf1, 0xde,
  0xd5, 0x94, 0xe6, 0xe8, 0xdd, 0xdc, 0xd5, 0x28, 0xdc, 0xf6, 0xca, 0xbb,
  0xf5, 0xcb, 0xfc, 0xf6, 0xd9, 0x81, 0xe4, 0x1a, 0xd5, 0xc8, 0xd1, 0x17,
  0xdb, 0xdb, 0xb4, 0xd3, 0xf1, 0xf1, 0xe5, 0xea, 0xc3, 0xca, 0xe3, 0x0e,
  0xe0, 0xdf, 0xbd, 0x13, 0xff, 0xfd, 0x0f, 0xed, 0x00, 0xba, 0x0f, 0xde,
  0xd1, 0xa1, 0xf5, 0xf0, 0xef, 0xed, 0xe9, 0x0b, 0x07, 0xf4, 0xf0, 0xe1,
  0xf7, 0xb2, 0x01, 0x09, 0xf1, 0xc7, 0xfa, 0xe9, 0xac, 0xd3, 0xf3, 0x18,
  0xaf, 0x15, 0xeb, 0x01, 0x28, 0xf3, 0x37, 0x49, 0xee, 0xbe, 0xd0, 0xed,
  0x06, 0xb4, 0xde, 0x1d, 0x1c, 0xc1, 0xc4, 0x02, 0x2d, 0xb4, 0x07, 0xf6,
  0x01, 0x01, 0xef, 0x04, 0xf4, 0x11, 0x01, 0xff, 0x11, 0xdb, 0xe8, 0x0a,
  0x29, 0xce, 0x0b, 0x32, 0x11, 0xd3, 0x12, 0x08, 0xf7, 0xdd, 0xe6, 0xf2,
  0x05, 0xbd, 0xe7, 0x06, 0x1f, 0xdd, 0xfc, 0x2c, 0x0b, 0xea, 0x14, 0x16,
  0xe8, 0xe9, 0x08, 0xef, 0x0b, 0xd8, 0xe8, 0x11, 0x27, 0xe5, 0xf6, 0x2a,
  0x0e, 0xee, 0x0c, 0x07, 0x05, 0xed, 0x04, 0x02, 0x06, 0xd6, 0xea, 0x09,
  0x2c, 0xe6, 0xec, 0x30, 0x0c, 0xf4, 0x1f, 0x06, 0xf8, 0x09, 0x02, 0xfa,
  0x0f, 0xe8, 0x01, 0x13, 0x17, 0xe4, 0xd8, 0x35, 0x1c, 0xf4, 0x0a, 0xff,
  0xf4, 0xf9, 0x07, 0xed, 0x13, 0xcb, 0xfc, 0x0e, 0x1d, 0xef, 0xf8, 0x3f,
  0x15, 0xf6, 0x17, 0x0d, 0xf5, 0xfb, 0xfb, 0xfb, 0x09, 0xf7, 0xfc, 0x11,
  0x2d, 0xd9, 0xe1, 0x39, 0xfe, 0xf7, 0x19, 0x09, 0x04, 0xf7, 0x09, 0xf4,
  0x0b, 0xfa, 0x11, 0x15, 0x12, 0xdb, 0xe2, 0x48, 0x0d, 0xe2, 0x11, 0x19,
  0xff, 0xf3, 0xf4, 0xf2, 0x0e, 0x03, 0xf0, 0x09, 0x0d, 0xf6, 0xdf, 0x36,
  0x0a, 0xf6, 0x15, 0x19, 0xfb, 0x07, 0x0c, 0xea, 0x05, 0x03, 0xfa, 0xff,
  0x01, 0x05, 0xd7, 0x2d, 0xe6, 0xf7, 0x16, 0x1d, 0xff, 0xfc, 0xef, 0xf0,
  0x17, 0xee, 0x0c, 0x0d, 0x05, 0x13, 0xdd, 0x2f, 0xef, 0xf1, 0x13, 0x17,
  0xf9, 0xfb, 0xec, 0xf9, 0xef, 0xf4, 0x0b, 0xf2, 0xce, 0xf8, 0xb9, 0x0a,
  0x07, 0xee, 0x14, 0x15, 0x0f, 0xbd, 0xe5, 0xf3, 0xb6, 0xfe, 0xff, 0xff,
  0x04, 0x00, 0x00, 0x00, 0x10, 0x00, 0x00, 0x00, 0xe0, 0xfe, 0xff, 0xff,
  0x4c, 0xec, 0xff, 0xff, 0x88, 0x1d, 0x00, 0x00, 0xb2, 0x00, 0x00, 0x00,
  0xd2, 0xfe, 0xff, 0xff, 0x04, 0x00, 0x00, 0x00, 0x40, 0x00, 0x00, 0x00,
  0xd7, 0xf7, 0xff, 0xff, 0x47, 0xfb, 0xff, 0xff, 0xa3, 0xf3, 0xff, 0xff,
  0xd9, 0xff, 0xff, 0xff, 0xae, 0x02, 0x00, 0x00, 0x2d, 0xfd, 0xff, 0xff,
  0xc7, 0x00, 0x00, 0x00, 0xe6, 0x05, 0x00, 0x00, 0x5e, 0xfc, 0xff, 0xff,
  0x96, 0xff, 0xff, 0xff, 0x88, 0x03, 0x00, 0x00, 0x5e, 0xfd, 0xff, 0xff,
  0x29, 0xf7, 0xff, 0xff, 0x79, 0xfd, 0xff, 0xff, 0x15, 0xfc, 0xff, 0xff,
  0xce, 0xfd, 0xff, 0xff, 0x1e, 0xff, 0xff, 0xff, 0x04, 0x00, 0x00, 0x00,
  0x20, 0x00, 0x00, 0x00, 0xc8, 0xf8, 0xff, 0xff, 0xc8, 0x0e, 0x00, 0x00,
  0x56, 0xdd, 0xff, 0xff, 0x4a, 0xdf, 0xff, 0xff, 0xe1, 0xed, 0xff, 0xff,
  0xcd, 0xe1, 0xff, 0xff, 0xc3, 0xff, 0xff, 0xff, 0x8e, 0x0c, 0x00, 0x00,
  0x4a, 0xff, 0xff, 0xff, 0x04, 0x00, 0x00, 0x00, 0x08, 0x00, 0x00, 0x00,
  0xff, 0xff, 0xff, 0xff, 0xd0, 0x00, 0x00, 0x00, 0x80, 0xea, 0xff, 0xff,
  0x84, 0xea, 0xff, 0xff, 0x0f, 0x00, 0x00, 0x00, 0x4d, 0x4c, 0x49, 0x52,
  0x20, 0x43, 0x6f, 0x6e, 0x76, 0x65, 0x72, 0x74, 0x65, 0x64, 0x2e, 0x00,
  0x01, 0x00, 0x00, 0x00, 0x14, 0x00, 0x00, 0x00, 0x00, 0x00, 0x0e, 0x00,
  0x18, 0x00, 0x14, 0x00, 0x10, 0x00, 0x0c, 0x00, 0x08, 0x00, 0x04, 0x00,
  0x0e, 0x00, 0x00, 0x00, 0x14, 0x00, 0x00, 0x00, 0x1c, 0x00, 0x00, 0x00,
  0x84, 0x02, 0x00, 0x00, 0x88, 0x02, 0x00, 0x00, 0x8c, 0x02, 0x00, 0x00,
  0x04, 0x00, 0x00, 0x00, 0x6d, 0x61, 0x69, 0x6e, 0x00, 0x00, 0x00, 0x00,
  0x0b, 0x00, 0x00, 0x00, 0x48, 0x02, 0x00, 0x00, 0xec, 0x01, 0x00, 0x00,
  0xb8, 0x01, 0x00, 0x00, 0x68, 0x01, 0x00, 0x00, 0x44, 0x01, 0x00, 0x00,
  0x00, 0x01, 0x00, 0x00, 0xdc, 0x00, 0x00, 0x00, 0x9c, 0x00, 0x00, 0x00,
  0x78, 0x00, 0x00, 0x00, 0x40, 0x00, 0x00, 0x00, 0x04, 0x00, 0x00, 0x00,
  0x4a, 0xfe, 0xff, 0xff, 0x1c, 0x00, 0x00, 0x00, 0x00, 0x00, 0x00, 0x09,
  0x1c, 0x00, 0x00, 0x00, 0x20, 0x00, 0x00, 0x00, 0x04, 0x00, 0x00, 0x00,
  0x00, 0x00, 0x06, 0x00, 0x08, 0x00, 0x04, 0x00, 0x06, 0x00, 0x00, 0x00,
  0x00, 0x00, 0x80, 0x3f, 0x01, 0x00, 0x00, 0x00, 0x16, 0x00, 0x00, 0x00,
  0x01, 0x00, 0x00, 0x00, 0x15, 0x00, 0x00, 0x00, 0x82, 0xfe, 0xff, 0xff,
  0x14, 0x00, 0x00, 0x00, 0x00, 0x00, 0x00, 0x08, 0x10, 0x00, 0x00, 0x00,
  0x14, 0x00, 0x00, 0x00, 0x03, 0x00, 0x00, 0x00, 0x58, 0xeb, 0xff, 0xff,
  0x01, 0x00, 0x00, 0x00, 0x15, 0x00, 0x00, 0x00, 0x03, 0x00, 0x00, 0x00,
  0x14, 0x00, 0x00, 0x00, 0x05, 0x00, 0x00, 0x00, 0x04, 0x00, 0x00, 0x00,
  0x5a, 0xfe, 0xff, 0xff, 0x08, 0x00, 0x00, 0x00, 0x0c, 0x00, 0x00, 0x00,
  0x01, 0x00, 0x00, 0x00, 0x14, 0x00, 0x00, 0x00, 0x02, 0x00, 0x00, 0x00,
  0x13, 0x00, 0x00, 0x00, 0x01, 0x00, 0x00, 0x00, 0xd6, 0xfe, 0xff, 0xff,
  0x14, 0x00, 0x00, 0x00, 0x00, 0x00, 0x00, 0x05, 0x20, 0x00, 0x00, 0x00,
  0x24, 0x00, 0x00, 0x00, 0x02, 0x00, 0x00, 0x00, 0x42, 0xff, 0xff, 0xff,
  0x02, 0x00, 0x00, 0x00, 0x01, 0x00, 0x00, 0x00, 0x02, 0x00, 0x00, 0x00,
  0x01, 0x00, 0x00, 0x00, 0x01, 0x00, 0x00, 0x00, 0x13, 0x00, 0x00, 0x00,
  0x01, 0x00, 0x00, 0x00, 0x12, 0x00, 0x00, 0x00, 0xb6, 0xfe, 0xff, 0xff,
  0x08, 0x00, 0x00, 0x00, 0x0c, 0x00, 0x00, 0x00, 0x01, 0x00, 0x00, 0x00,
  0x12, 0x00, 0x00, 0x00, 0x02, 0x00, 0x00, 0x00, 0x11, 0x00, 0x00, 0x00,
  0x0b, 0x00, 0x00, 0x00, 0x32, 0xff, 0xff, 0xff, 0x14, 0x00, 0x00, 0x00,
  0x00, 0x00, 0x00, 0x01, 0x1c, 0x00, 0x00, 0x00, 0x20, 0x00, 0x00, 0x00,
  0x01, 0x00, 0x00, 0x00, 0x24, 0xff, 0xff, 0xff, 0x00, 0x00, 0x00, 0x01,
  0x01, 0x00, 0x00, 0x00, 0x01, 0x00, 0x00, 0x00, 0x01, 0x00, 0x00, 0x00,
  0x11, 0x00, 0x00, 0x00, 0x03, 0x00, 0x00, 0x00, 0x10, 0x00, 0x00, 0x00,
  0x07, 0x00, 0x00, 0x00, 0x03, 0x00, 0x00, 0x00, 0x16, 0xff, 0xff, 0xff,
  0x08, 0x00, 0x00, 0x00, 0x0c, 0x00, 0x00, 0x00, 0x01, 0x00, 0x00, 0x00,
  0x10, 0x00, 0x00, 0x00, 0x02, 0x00, 0x00, 0x00, 0x0f, 0x00, 0x00, 0x00,
  0x0a, 0x00, 0x00, 0x00, 0x92, 0xff, 0xff, 0xff, 0x24, 0x00, 0x00, 0x00,
  0x00, 0x00, 0x00, 0x05, 0x30, 0x00, 0x00, 0x00, 0x34, 0x00, 0x00, 0x00,
  0x02, 0x00, 0x00, 0x00, 0x00, 0x00, 0x0e, 0x00, 0x14, 0x00, 0x00, 0x00,
  0x10, 0x00, 0x0c, 0x00, 0x08, 0x00, 0x04, 0x00, 0x0e, 0x00, 0x00, 0x00,
  0x02, 0x00, 0x00, 0x00, 0x01, 0x00, 0x00, 0x00, 0x02, 0x00, 0x00, 0x00,
  0x01, 0x00, 0x00, 0x00, 0x01, 0x00, 0x00, 0x00, 0x0f, 0x00, 0x00, 0x00,
  0x01, 0x00, 0x00, 0x00, 0x0e, 0x00, 0x00, 0x00, 0x82, 0xff, 0xff, 0xff,
  0x08, 0x00, 0x00, 0x00, 0x0c, 0x00, 0x00, 0x00, 0x01, 0x00, 0x00, 0x00,
  0x0e, 0x00, 0x00, 0x00, 0x02, 0x00, 0x00, 0x00, 0x0d, 0x00, 0x00, 0x00,
  0x09, 0x00, 0x00, 0x00, 0x00, 0x00, 0x0e, 0x00, 0x18, 0x00, 0x14, 0x00,
  0x10, 0x00, 0x0c, 0x00, 0x0b, 0x00, 0x04, 0x00, 0x0e, 0x00, 0x00, 0x00,
  0x20, 0x00, 0x00, 0x00, 0x00, 0x00, 0x00, 0x01, 0x28, 0x00, 0x00, 0x00,
  0x2c, 0x00, 0x00, 0x00, 0x01, 0x00, 0x00, 0x00, 0x0c, 0x00, 0x10, 0x00,
  0x00, 0x00, 0x0c, 0x00, 0x08, 0x00, 0x07, 0x00, 0x0c, 0x00, 0x00, 0x00,
  0x00, 0x00, 0x00, 0x01, 0x01, 0x00, 0x00, 0x00, 0x01, 0x00, 0x00, 0x00,
  0x01, 0x00, 0x00, 0x00, 0x0d, 0x00, 0x00, 0x00, 0x03, 0x00, 0x00, 0x00,
  0x0c, 0x00, 0x00, 0x00, 0x06, 0x00, 0x00, 0x00, 0x02, 0x00, 0x00, 0x00,
  0x00, 0x00, 0x0a, 0x00, 0x0c, 0x00, 0x00, 0x00, 0x08, 0x00, 0x04, 0x00,
  0x0a, 0x00, 0x00, 0x00, 0x08, 0x00, 0x00, 0x00, 0x0c, 0x00, 0x00, 0x00,
  0x01, 0x00, 0x00, 0x00, 0x0c, 0x00, 0x00, 0x00, 0x02, 0x00, 0x00, 0x00,
  0x00, 0x00, 0x00, 0x00, 0x08, 0x00, 0x00, 0x00, 0x01, 0x00, 0x00, 0x00,
  0x16, 0x00, 0x00, 0x00, 0x01, 0x00, 0x00, 0x00, 0x00, 0x00, 0x00, 0x00,
  0x17, 0x00, 0x00, 0x00, 0x18, 0x13, 0x00, 0x00, 0x8c, 0x12, 0x00, 0x00,
  0xd8, 0x11, 0x00, 0x00, 0xd0, 0x10, 0x00, 0x00, 0x7c, 0x10, 0x00, 0x00,
  0xc8, 0x0f, 0x00, 0x00, 0x84, 0x0e, 0x00, 0x00, 0x98, 0x0c, 0x00, 0x00,
  0x0c, 0x0c, 0x00, 0x00, 0x80, 0x0b, 0x00, 0x00, 0xf0, 0x0a, 0x00, 0x00,
  0x60, 0x0a, 0x00, 0x00, 0x8c, 0x09, 0x00, 0x00, 0xe0, 0x07, 0x00, 0x00,
  0x0c, 0x07, 0x00, 0x00, 0x40, 0x06, 0x00, 0x00, 0x6c, 0x05, 0x00, 0x00,
  0xb0, 0x03, 0x00, 0x00, 0xdc, 0x02, 0x00, 0x00, 0x10, 0x02, 0x00, 0x00,
  0x5c, 0x01, 0x00, 0x00, 0x60, 0x00, 0x00, 0x00, 0x04, 0x00, 0x00, 0x00,
  0x52, 0xed, 0xff, 0xff, 0x14, 0x00, 0x00, 0x00, 0x30, 0x00, 0x00, 0x00,
  0x17, 0x00, 0x00, 0x00, 0x00, 0x00, 0x00, 0x09, 0x38, 0x00, 0x00, 0x00,
  0x7c, 0xee, 0xff, 0xff, 0x08, 0x00, 0x00, 0x00, 0x10, 0x00, 0x00, 0x00,
  0x01, 0x00, 0x00, 0x00, 0x80, 0xff, 0xff, 0xff, 0xff, 0xff, 0xff, 0xff,
  0x01, 0x00, 0x00, 0x00, 0x00, 0x00, 0x80, 0x3b, 0x0d, 0x00, 0x00, 0x00,
  0x49, 0x64, 0x65, 0x6e, 0x74, 0x69, 0x74, 0x79, 0x5f, 0x69, 0x6e, 0x74,
  0x38, 0x00, 0x00, 0x00, 0x02, 0x00, 0x00, 0x00, 0x01, 0x00, 0x00, 0x00,
  0x04, 0x00, 0x00, 0x00, 0xaa, 0xed, 0xff, 0xff, 0x14, 0x00, 0x00, 0x00,
  0x48, 0x00, 0x00, 0x00, 0x16, 0x00, 0x00, 0x00, 0x00, 0x00, 0x00, 0x09,
  0xd8, 0x00, 0x00, 0x00, 0x9c, 0xed, 0xff, 0xff, 0x10, 0x00, 0x00, 0x00,
  0x18, 0x00, 0x00, 0x00, 0x1c, 0x00, 0x00, 0x00, 0x20, 0x00, 0x00, 0x00,
  0x01, 0x00, 0x00, 0x00, 0x28, 0x00, 0x00, 0x00, 0x00, 0x00, 0x00, 0x00,
  0x01, 0x00, 0x00, 0x00, 0x98, 0x7a, 0x04, 0x3e, 0x01, 0x00, 0x00, 0x00,
  0x9b, 0xc2, 0x33, 0x41, 0x01, 0x00, 0x00, 0x00, 0xec, 0x0a, 0xae, 0xc1,
  0x95, 0x00, 0x00, 0x00, 0x73, 0x65, 0x71, 0x75, 0x65, 0x6e, 0x74, 0x69,
  0x61, 0x6c, 0x2f, 0x79, 0x5f, 0x70, 0x72, 0x65, 0x64, 0x2f, 0x4d, 0x61,
  0x74, 0x4d, 0x75, 0x6c, 0x3b, 0x53, 0x74, 0x61, 0x74, 0x65, 0x66, 0x75,
  0x6c, 0x50, 0x61, 0x72, 0x74, 0x69, 0x74, 0x69, 0x6f, 0x6e, 0x65, 0x64,
  0x43, 0x61, 0x6c, 0x6c, 0x2f, 0x73, 0x65, 0x71, 0x75, 0x65, 0x6e, 0x74,
  0x69, 0x61, 0x6c, 0x2f, 0x79, 0x5f, 0x70, 0x72, 0x65, 0x64, 0x2f, 0x4d,
  0x61, 0x74, 0x4d, 0x75, 0x6c, 0x3b, 0x73, 0x65, 0x71, 0x75, 0x65, 0x6e,
  0x74, 0x69, 0x61, 0x6c, 0x2f, 0x79, 0x5f, 0x70, 0x72, 0x65, 0x64, 0x2f,
  0x42, 0x69, 0x61, 0x73, 0x41, 0x64, 0x64, 0x3b, 0x53, 0x74, 0x61, 0x74,
  0x65, 0x66, 0x75, 0x6c, 0x50, 0x61, 0x72, 0x74, 0x69, 0x74, 0x69, 0x6f,
  0x6e, 0x65, 0x64, 0x43, 0x61, 0x6c, 0x6c, 0x2f, 0x73, 0x65, 0x71, 0x75,
  0x65, 0x6e, 0x74, 0x69, 0x61, 0x6c, 0x2f, 0x79, 0x5f, 0x70, 0x72, 0x65,
  0x64, 0x2f, 0x42, 0x69, 0x61, 0x73, 0x41, 0x64, 0x64, 0x00, 0x00, 0x00,
  0x02, 0x00, 0x00, 0x00, 0x01, 0x00, 0x00, 0x00, 0x04, 0x00, 0x00, 0x00,
  0xa2, 0xee, 0xff, 0xff, 0x14, 0x00, 0x00, 0x00, 0x48, 0x00, 0x00, 0x00,
  0x15, 0x00, 0x00, 0x00, 0x00, 0x00, 0x00, 0x09, 0x90, 0x00, 0x00, 0x00,
  0x94, 0xee, 0xff, 0xff, 0x10, 0x00, 0x00, 0x00, 0x18, 0x00, 0x00, 0x00,
  0x1c, 0x00, 0x00, 0x00, 0x20, 0x00, 0x00, 0x00, 0x01, 0x00, 0x00, 0x00,
  0x80, 0xff, 0xff, 0xff, 0xff, 0xff, 0xff, 0xff, 0x01, 0x00, 0x00, 0x00,
  0x02, 0x26, 0xe9, 0x3c, 0x01, 0x00, 0x00, 0x00, 0xdc, 0x3c, 0xe8, 0x40,
  0x01, 0x00, 0x00, 0x00, 0x00, 0x00, 0x00, 0x00, 0x4d, 0x00, 0x00, 0x00,
  0x73, 0x65, 0x71, 0x75, 0x65, 0x6e, 0x74, 0x69, 0x61, 0x6c, 0x2f, 0x66,
  0x6c, 0x61, 0x74, 0x74, 0x65, 0x6e, 0x2f, 0x52, 0x65, 0x73, 0x68, 0x61,
  0x70, 0x65, 0x3b, 0x53, 0x74, 0x61, 0x74, 0x65, 0x66, 0x75, 0x6c, 0x50,
  0x61, 0x72, 0x74, 0x69, 0x74, 0x69, 0x6f, 0x6e, 0x65, 0x64, 0x43, 0x61,
  0x6c, 0x6c, 0x2f, 0x73, 0x65, 0x71, 0x75, 0x65, 0x6e, 0x74, 0x69, 0x61,
  0x6c, 0x2f, 0x66, 0x6c, 0x61, 0x74, 0x74, 0x65, 0x6e, 0x2f, 0x52, 0x65,
  0x73, 0x68, 0x61, 0x70, 0x65, 0x00, 0x00, 0x00, 0x02, 0x00, 0x00, 0x00,
  0x01, 0x00, 0x00, 0x00, 0xd0, 0x00, 0x00, 0x00, 0x52, 0xef, 0xff, 0xff,
  0x14, 0x00, 0x00, 0x00, 0x48, 0x00, 0x00, 0x00, 0x14, 0x00, 0x00, 0x00,
  0x00, 0x00, 0x00, 0x09, 0xa0, 0x00, 0x00, 0x00, 0x44, 0xef, 0xff, 0xff,
  0x10, 0x00, 0x00, 0x00, 0x18, 0x00, 0x00, 0x00, 0x1c, 0x00, 0x00, 0x00,
  0x20, 0x00, 0x00, 0x00, 0x01, 0x00, 0x00, 0x00, 0x80, 0xff, 0xff, 0xff,
  0xff, 0xff, 0xff, 0xff, 0x01, 0x00, 0x00, 0x00, 0x02, 0x26, 0xe9, 0x3c,
  0x01, 0x00, 0x00, 0x00, 0xdc, 0x3c, 0xe8, 0x40, 0x01, 0x00, 0x00, 0x00,
  0x00, 0x00, 0x00, 0x00, 0x5d, 0x00, 0x00, 0x00, 0x73, 0x65, 0x71, 0x75,
  0x65, 0x6e, 0x74, 0x69, 0x61, 0x6c, 0x2f, 0x6d, 0x61, 0x78, 0x5f, 0x70,
  0x6f, 0x6f, 0x6c, 0x69, 0x6e, 0x67, 0x31, 0x64, 0x5f, 0x31, 0x2f, 0x4d,
  0x61, 0x78, 0x50, 0x6f, 0x6f, 0x6c, 0x3b, 0x53, 0x74, 0x61, 0x74, 0x65,
  0x66, 0x75, 0x6c, 0x50, 0x61, 0x72, 0x74, 0x69, 0x74, 0x69, 0x6f, 0x6e,
  0x65, 0x64, 0x43, 0x61, 0x6c, 0x6c, 0x2f, 0x73, 0x65, 0x71, 0x75, 0x65,
  0x6e, 0x74, 0x69, 0x61, 0x6c, 0x2f, 0x6d, 0x61, 0x78, 0x5f, 0x70, 0x6f,
  0x6f, 0x6c, 0x69, 0x6e, 0x67, 0x31, 0x64, 0x5f, 0x31, 0x2f, 0x4d, 0x61,
  0x78, 0x50, 0x6f, 0x6f, 0x6c, 0x00, 0x00, 0x00, 0x04, 0x00, 0x00, 0x00,
  0x01, 0x00, 0x00, 0x00, 0x0d, 0x00, 0x00, 0x00, 0x01, 0x00, 0x00, 0x00,
  0x10, 0x00, 0x00, 0x00, 0x1a, 0xf0, 0xff, 0xff, 0x14, 0x00, 0x00, 0x00,
  0x48, 0x00, 0x00, 0x00, 0x13, 0x00, 0x00, 0x00, 0x00, 0x00, 0x00, 0x09,
  0xa8, 0x00, 0x00, 0x00, 0x0c, 0xf0, 0xff, 0xff, 0x10, 0x00, 0x00, 0x00,
  0x18, 0x00, 0x00, 0x00, 0x1c, 0x00, 0x00, 0x00, 0x20, 0x00, 0x00, 0x00,
  0x01, 0x00, 0x00, 0x00, 0x80, 0xff, 0xff, 0xff, 0xff, 0xff, 0xff, 0xff,
  0x01, 0x00, 0x00, 0x00, 0x02, 0x26, 0xe9, 0x3c, 0x01, 0x00, 0x00, 0x00,
  0xdc, 0x3c, 0xe8, 0x40, 0x01, 0x00, 0x00, 0x00, 0x00, 0x00, 0x00, 0x00,
  0x64, 0x00, 0x00, 0x00, 0x73, 0x65, 0x71, 0x75, 0x65, 0x6e, 0x74, 0x69,
  0x61, 0x6c, 0x2f, 0x6d, 0x61, 0x78, 0x5f, 0x70, 0x6f, 0x6f, 0x6c, 0x69,
  0x6e, 0x67, 0x31, 0x64, 0x5f, 0x31, 0x2f, 0x45, 0x78, 0x70, 0x61, 0x6e,
  0x64, 0x44, 0x69, 0x6d, 0x73, 0x3b, 0x53, 0x74, 0x61, 0x74, 0x65, 0x66,
  0x75, 0x6c, 0x50, 0x61, 0x72, 0x74, 0x69, 0x74, 0x69, 0x6f, 0x6e, 0x65,
  0x64, 0x43, 0x61, 0x6c, 0x6c, 0x2f, 0x73, 0x65, 0x71, 0x75, 0x65, 0x6e,
  0x74, 0x69, 0x61, 0x6c, 0x2f, 0x6d, 0x61, 0x78, 0x5f, 0x70, 0x6f, 0x6f,
  0x6c, 0x69, 0x6e, 0x67, 0x31, 0x64, 0x5f, 0x31, 0x2f, 0x45, 0x78, 0x70,
  0x61, 0x6e, 0x64, 0x44, 0x69, 0x6d, 0x73, 0x31, 0x00, 0x00, 0x00, 0x00,
  0x04, 0x00, 0x00, 0x00, 0x01, 0x00, 0x00, 0x00, 0x19, 0x00, 0x00, 0x00,
  0x01, 0x00, 0x00, 0x00, 0x10, 0x00, 0x00, 0x00, 0xea, 0xf0, 0xff, 0xff,
  0x14, 0x00, 0x00, 0x00, 0x48, 0x00, 0x00, 0x00, 0x12, 0x00, 0x00, 0x00,
  0x00, 0x00, 0x00, 0x09, 0x90, 0x01, 0x00, 0x00, 0xdc, 0xf0, 0xff, 0xff,
  0x10, 0x00, 0x00, 0x00, 0x18, 0x00, 0x00, 0x00, 0x1c, 0x00, 0x00, 0x00,
  0x20, 0x00, 0x00, 0x00, 0x01, 0x00, 0x00, 0x00, 0x80, 0xff, 0xff, 0xff,
  0xff, 0xff, 0xff, 0xff, 0x01, 0x00, 0x00, 0x00, 0x02, 0x26, 0xe9, 0x3c,
  0x01, 0x00, 0x00, 0x00, 0xdc, 0x3c, 0xe8, 0x40, 0x01, 0x00, 0x00, 0x00,
  0x00, 0x00, 0x00, 0x00, 0x4f, 0x01, 0x00, 0x00, 0x73, 0x65, 0x71, 0x75,
  0x65, 0x6e, 0x74, 0x69, 0x61, 0x6c, 0x2f, 0x63, 0x6f, 0x6e, 0x76, 0x31,
  0x64, 0x5f, 0x31, 0x2f, 0x52, 0x65, 0x6c, 0x75, 0x3b, 0x53, 0x74, 0x61,
  0x74, 0x65, 0x66, 0x75, 0x6c, 0x50, 0x61, 0x72, 0x74, 0x69, 0x74, 0x69,
  0x6f, 0x6e, 0x65, 0x64, 0x43, 0x61, 0x6c, 0x6c, 0x2f, 0x73, 0x65, 0x71,
  0x75, 0x65, 0x6e, 0x74, 0x69, 0x61, 0x6c, 0x2f, 0x63, 0x6f, 0x6e, 0x76,
  0x31, 0x64, 0x5f, 0x31, 0x2f, 0x52, 0x65, 0x6c, 0x75, 0x3b, 0x73, 0x65,
  0x71, 0x75, 0x65, 0x6e, 0x74, 0x69, 0x61, 0x6c, 0x2f, 0x63, 0x6f, 0x6e,
  0x76, 0x31, 0x64, 0x5f, 0x31, 0x2f, 0x42, 0x69, 0x61, 0x73, 0x41, 0x64,
  0x64, 0x3b, 0x53, 0x74, 0x61, 0x74, 0x65, 0x66, 0x75, 0x6c, 0x50, 0x61,
  0x72, 0x74, 0x69, 0x74, 0x69, 0x6f, 0x6e, 0x65, 0x64, 0x43, 0x61, 0x6c,
  0x6c, 0x2f, 0x73, 0x65, 0x71, 0x75, 0x65, 0x6e, 0x74, 0x69, 0x61, 0x6c,
  0x2f, 0x63, 0x6f, 0x6e, 0x76, 0x31, 0x64, 0x5f, 0x31, 0x2f, 0x42, 0x69,
  0x61, 0x73, 0x41, 0x64, 0x64, 0x3b, 0x73, 0x65, 0x71, 0x75, 0x65, 0x6e,
  0x74, 0x69, 0x61, 0x6c, 0x2f, 0x63, 0x6f, 0x6e, 0x76, 0x31, 0x64, 0x5f,
  0x31, 0x2f, 0x63, 0x6f, 0x6e, 0x76, 0x31, 0x64, 0x2f, 0x53, 0x71, 0x75,
  0x65, 0x65, 0x7a, 0x65, 0x3b, 0x53, 0x74, 0x61, 0x74, 0x65, 0x66, 0x75,
  0x6c, 0x50, 0x61, 0x72, 0x74, 0x69, 0x74, 0x69, 0x6f, 0x6e, 0x65, 0x64,
  0x43, 0x61, 0x6c, 0x6c, 0x2f, 0x73, 0x65, 0x71, 0x75, 0x65, 0x6e, 0x74,
  0x69, 0x61, 0x6c, 0x2f, 0x63, 0x6f, 0x6e, 0x76, 0x31, 0x64, 0x5f, 0x31,
  0x2f, 0x63, 0x6f, 0x6e, 0x76, 0x31, 0x64, 0x2f, 0x53, 0x71, 0x75, 0x65,
  0x65, 0x7a, 0x65, 0x3b, 0x75, 0x6e, 0x6b, 0x6e, 0x6f, 0x77, 0x6e, 0x5f,
  0x32, 0x3b, 0x73, 0x65, 0x71, 0x75, 0x65, 0x6e, 0x74, 0x69, 0x61, 0x6c,
  0x2f, 0x63, 0x6f, 0x6e, 0x76, 0x31, 0x64, 0x5f, 0x31, 0x2f, 0x63, 0x6f,
  0x6e, 0x76, 0x31, 0x64, 0x3b, 0x53, 0x74, 0x61, 0x74, 0x65, 0x66, 0x75,
  0x6c, 0x50, 0x61, 0x72, 0x74, 0x69, 0x74, 0x69, 0x6f, 0x6e, 0x65, 0x64,
  0x43, 0x61, 0x6c, 0x6c, 0x2f, 0x73, 0x65, 0x71, 0x75, 0x65, 0x6e, 0x74,
  0x69, 0x61, 0x6c, 0x2f, 0x63, 0x6f, 0x6e, 0x76, 0x31, 0x64, 0x5f, 0x31,
  0x2f, 0x63, 0x6f, 0x6e, 0x76, 0x31, 0x64, 0x00, 0x04, 0x00, 0x00, 0x00,
  0x01, 0x00, 0x00, 0x00, 0x01, 0x00, 0x00, 0x00, 0x19, 0x00, 0x00, 0x00,
  0x10, 0x00, 0x00, 0x00, 0xa2, 0xf2, 0xff, 0xff, 0x14, 0x00, 0x00, 0x00,
  0x48, 0x00, 0x00, 0x00, 0x11, 0x00, 0x00, 0x00, 0x00, 0x00, 0x00, 0x09,
  0xa8, 0x00, 0x00, 0x00, 0x94, 0xf2, 0xff, 0xff, 0x10, 0x00, 0x00, 0x00,
  0x18, 0x00, 0x00, 0x00, 0x1c, 0x00, 0x00, 0x00, 0x20, 0x00, 0x00, 0x00,
  0x01, 0x00, 0x00, 0x00, 0x80, 0xff, 0xff, 0xff, 0xff, 0xff, 0xff, 0xff,
  0x01, 0x00, 0x00, 0x00, 0xe0, 0xaa, 0x68, 0x3d, 0x01, 0x00, 0x00, 0x00,
  0x35, 0xc2, 0x67, 0x41, 0x01, 0x00, 0x00, 0x00, 0x00, 0x00, 0x00, 0x00,
  0x64, 0x00, 0x00, 0x00, 0x73, 0x65, 0x71, 0x75, 0x65, 0x6e, 0x74, 0x69,
  0x61, 0x6c, 0x2f, 0x63, 0x6f, 0x6e, 0x76, 0x31, 0x64, 0x5f, 0x31, 0x2f,
  0x63, 0x6f, 0x6e, 0x76, 0x31, 0x64, 0x2f, 0x45, 0x78, 0x70, 0x61, 0x6e,
  0x64, 0x44, 0x69, 0x6d, 0x73, 0x3b, 0x53, 0x74, 0x61, 0x74, 0x65, 0x66,
  0x75, 0x6c, 0x50, 0x61, 0x72, 0x74, 0x69, 0x74, 0x69, 0x6f, 0x6e, 0x65,
  0x64, 0x43, 0x61, 0x6c, 0x6c, 0x2f, 0x73, 0x65, 0x71, 0x75, 0x65, 0x6e,
  0x74, 0x69, 0x61, 0x6c, 0x2f, 0x63, 0x6f, 0x6e, 0x76, 0x31, 0x64, 0x5f,
  0x31, 0x2f, 0x63, 0x6f, 0x6e, 0x76, 0x31, 0x64, 0x2f, 0x45, 0x78, 0x70,
  0x61, 0x6e, 0x64, 0x44, 0x69, 0x6d, 0x73, 0x31, 0x00, 0x00, 0x00, 0x00,
  0x04, 0x00, 0x00, 0x00, 0x01, 0x00, 0x00, 0x00, 0x01, 0x00, 0x00, 0x00,
  0x19, 0x00, 0x00, 0x00, 0x08, 0x00, 0x00, 0x00, 0x72, 0xf3, 0xff, 0xff,
  0x14, 0x00, 0x00, 0x00, 0x4c, 0x00, 0x00, 0x00, 0x10, 0x00, 0x00, 0x00,
  0x00, 0x00, 0x00, 0x09, 0xa0, 0x00, 0x00, 0x00, 0x64, 0xf3, 0xff, 0xff,
  0x10, 0x00, 0x00, 0x00, 0x1c, 0x00, 0x00, 0x00, 0x20, 0x00, 0x00, 0x00,
  0x24, 0x00, 0x00, 0x00, 0x01, 0x00, 0x00, 0x00, 0x80, 0xff, 0xff, 0xff,
  0xff, 0xff, 0xff, 0xff, 0x00, 0x00, 0x00, 0x00, 0x01, 0x00, 0x00, 0x00,
  0xe0, 0xaa, 0x68, 0x3d, 0x01, 0x00, 0x00, 0x00, 0x35, 0xc2, 0x67, 0x41,
  0x01, 0x00, 0x00, 0x00, 0x00, 0x00, 0x00, 0x00, 0x59, 0x00, 0x00, 0x00,
  0x73, 0x65, 0x71, 0x75, 0x65, 0x6e, 0x74, 0x69, 0x61, 0x6c, 0x2f, 0x6d,
  0x61, 0x78, 0x5f, 0x70, 0x6f, 0x6f, 0x6c, 0x69, 0x6e, 0x67, 0x31, 0x64,
  0x2f, 0x4d, 0x61, 0x78, 0x50, 0x6f, 0x6f, 0x6c, 0x3b, 0x53, 0x74, 0x61,
  0x74, 0x65, 0x66, 0x75, 0x6c, 0x50, 0x61, 0x72, 0x74, 0x69, 0x74, 0x69,
  0x6f, 0x6e, 0x65, 0x64, 0x43, 0x61, 0x6c, 0x6c, 0x2f, 0x73, 0x65, 0x71,
  0x75, 0x65, 0x6e, 0x74, 0x69, 0x61, 0x6c, 0x2f, 0x6d, 0x61, 0x78, 0x5f,
  0x70, 0x6f, 0x6f, 0x6c, 0x69, 0x6e, 0x67, 0x31, 0x64, 0x2f, 0x4d, 0x61,
  0x78, 0x50, 0x6f, 0x6f, 0x6c, 0x00, 0x00, 0x00, 0x04, 0x00, 0x00, 0x00,
  0x01, 0x00, 0x00, 0x00, 0x19, 0x00, 0x00, 0x00, 0x01, 0x00, 0x00, 0x00,
  0x08, 0x00, 0x00, 0x00, 0x3a, 0xf4, 0xff, 0xff, 0x14, 0x00, 0x00, 0x00,
  0x4c, 0x00, 0x00, 0x00, 0x0f, 0x00, 0x00, 0x00, 0x00, 0x00, 0x00, 0x09,
  0xa8, 0x00, 0x00, 0x00, 0x2c, 0xf4, 0xff, 0xff, 0x10, 0x00, 0x00, 0x00,
  0x1c, 0x00, 0x00, 0x00, 0x20, 0x00, 0x00, 0x00, 0x24, 0x00, 0x00, 0x00,
  0x01, 0x00, 0x00, 0x00, 0x80, 0xff, 0xff, 0xff, 0xff, 0xff, 0xff, 0xff,
  0x00, 0x00, 0x00, 0x00, 0x01, 0x00, 0x00, 0x00, 0xe0, 0xaa, 0x68, 0x3d,
  0x01, 0x00, 0x00, 0x00, 0x35, 0xc2, 0x67, 0x41, 0x01, 0x00, 0x00, 0x00,
  0x00, 0x00, 0x00, 0x00, 0x60, 0x00, 0x00, 0x00, 0x73, 0x65, 0x71, 0x75,
  0x65, 0x6e, 0x74, 0x69, 0x61, 0x6c, 0x2f, 0x6d, 0x61, 0x78, 0x5f, 0x70,
  0x6f, 0x6f, 0x6c, 0x69, 0x6e, 0x67, 0x31, 0x64, 0x2f, 0x45, 0x78, 0x70,
  0x61, 0x6e, 0x64, 0x44, 0x69, 0x6d, 0x73, 0x3b, 0x53, 0x74, 0x61, 0x74,
  0x65, 0x66, 0x75, 0x6c, 0x50, 0x61, 0x72, 0x74, 0x69, 0x74, 0x69, 0x6f,
  0x6e, 0x65, 0x64, 0x43, 0x61, 0x6c, 0x6c, 0x2f, 0x73, 0x65, 0x71, 0x75,
  0x65, 0x6e, 0x74, 0x69, 0x61, 0x6c, 0x2f, 0x6d, 0x61, 0x78, 0x5f, 0x70,
  0x6f, 0x6f, 0x6c, 0x69, 0x6e, 0x67, 0x31, 0x64, 0x2f, 0x45, 0x78, 0x70,
  0x61, 0x6e, 0x64, 0x44, 0x69, 0x6d, 0x73, 0x31, 0x00, 0x00, 0x00, 0x00,
  0x04, 0x00, 0x00, 0x00, 0x01, 0x00, 0x00, 0x00, 0x32, 0x00, 0x00, 0x00,
  0x01, 0x00, 0x00, 0x00, 0x08, 0x00, 0x00, 0x00, 0x0a, 0xf5, 0xff, 0xff,
  0x14, 0x00, 0x00, 0x00, 0x48, 0x00, 0x00, 0x00, 0x0e, 0x00, 0x00, 0x00,
  0x00, 0x00, 0x00, 0x09, 0x80, 0x01, 0x00, 0x00, 0xfc, 0xf4, 0xff, 0xff,
  0x10, 0x00, 0x00, 0x00, 0x18, 0x00, 0x00, 0x00, 0x1c, 0x00, 0x00, 0x00,
  0x20, 0x00, 0x00, 0x00, 0x01, 0x00, 0x00, 0x00, 0x80, 0xff, 0xff, 0xff,
  0xff, 0xff, 0xff, 0xff, 0x01, 0x00, 0x00, 0x00, 0xe0, 0xaa, 0x68, 0x3d,
  0x01, 0x00, 0x00, 0x00, 0x35, 0xc2, 0x67, 0x41, 0x01, 0x00, 0x00, 0x00,
  0x00, 0x00, 0x00, 0x00, 0x3f, 0x01, 0x00, 0x00, 0x73, 0x65, 0x71, 0x75,
  0x65, 0x6e, 0x74, 0x69, 0x61, 0x6c, 0x2f, 0x63, 0x6f, 0x6e, 0x76, 0x31,
  0x64, 0x2f, 0x52, 0x65, 0x6c, 0x75, 0x3b, 0x53, 0x74, 0x61, 0x74, 0x65,
  0x66, 0x75, 0x6c, 0x50, 0x61, 0x72, 0x74, 0x69, 0x74, 0x69, 0x6f, 0x6e,
  0x65, 0x64, 0x43, 0x61, 0x6c, 0x6c, 0x2f, 0x73, 0x65, 0x71, 0x75, 0x65,
  0x6e, 0x74, 0x69, 0x61, 0x6c, 0x2f, 0x63, 0x6f, 0x6e, 0x76, 0x31, 0x64,
  0x2f, 0x52, 0x65, 0x6c, 0x75, 0x3b, 0x73, 0x65, 0x71, 0x75, 0x65, 0x6e,
  0x74, 0x69, 0x61, 0x6c, 0x2f, 0x63, 0x6f, 0x6e, 0x76, 0x31, 0x64, 0x2f,
  0x42, 0x69, 0x61, 0x73, 0x41, 0x64, 0x64, 0x3b, 0x53, 0x74, 0x61, 0x74,
  0x65, 0x66, 0x75, 0x6c, 0x50, 0x61, 0x72, 0x74, 0x69, 0x74, 0x69, 0x6f,
  0x6e, 0x65, 0x64, 0x43, 0x61, 0x6c, 0x6c, 0x2f, 0x73, 0x65, 0x71, 0x75,
  0x65, 0x6e, 0x74, 0x69, 0x61, 0x6c, 0x2f, 0x63, 0x6f, 0x6e, 0x76, 0x31,
  0x64, 0x2f, 0x42, 0x69, 0x61, 0x73, 0x41, 0x64, 0x64, 0x3b, 0x73, 0x65,
  0x71, 0x75, 0x65, 0x6e, 0x74, 0x69, 0x61, 0x6c, 0x2f, 0x63, 0x6f, 0x6e,
  0x76, 0x31, 0x64, 0x2f, 0x63, 0x6f, 0x6e, 0x76, 0x31, 0x64, 0x2f, 0x53,
  0x71, 0x75, 0x65, 0x65, 0x7a, 0x65, 0x3b, 0x53, 0x74, 0x61, 0x74, 0x65,
  0x66, 0x75, 0x6c, 0x50, 0x61, 0x72, 0x74, 0x69, 0x74, 0x69, 0x6f, 0x6e,
  0x65, 0x64, 0x43, 0x61, 0x6c, 0x6c, 0x2f, 0x73, 0x65, 0x71, 0x75, 0x65,
  0x6e, 0x74, 0x69, 0x61, 0x6c, 0x2f, 0x63, 0x6f, 0x6e, 0x76, 0x31, 0x64,
  0x2f, 0x63, 0x6f, 0x6e, 0x76, 0x31, 0x64, 0x2f, 0x53, 0x71, 0x75, 0x65,
  0x65, 0x7a, 0x65, 0x3b, 0x75, 0x6e, 0x6b, 0x6e, 0x6f, 0x77, 0x6e, 0x5f,
  0x30, 0x3b, 0x73, 0x65, 0x71, 0x75, 0x65, 0x6e, 0x74, 0x69, 0x61, 0x6c,
  0x2f, 0x63, 0x6f, 0x6e, 0x76, 0x31, 0x64, 0x2f, 0x63, 0x6f, 0x6e, 0x76,
  0x31, 0x64, 0x3b, 0x53, 0x74, 0x61, 0x74, 0x65, 0x66, 0x75, 0x6c, 0x50,
  0x61, 0x72, 0x74, 0x69, 0x74, 0x69, 0x6f, 0x6e, 0x65, 0x64, 0x43, 0x61,
  0x6c, 0x6c, 0x2f, 0x73, 0x65, 0x71, 0x75, 0x65, 0x6e, 0x74, 0x69, 0x61,
  0x6c, 0x2f, 0x63, 0x6f, 0x6e, 0x76, 0x31, 0x64, 0x2f, 0x63, 0x6f, 0x6e,
  0x76, 0x31, 0x64, 0x00, 0x04, 0x00, 0x00, 0x00, 0x01, 0x00, 0x00, 0x00,
  0x01, 0x00, 0x00, 0x00, 0x32, 0x00, 0x00, 0x00, 0x08, 0x00, 0x00, 0x00,
  0xb2, 0xf6, 0xff, 0xff, 0x14, 0x00, 0x00, 0x00, 0x4c, 0x00, 0x00, 0x00,
  0x0d, 0x00, 0x00, 0x00, 0x00, 0x00, 0x00, 0x09, 0xa8, 0x00, 0x00, 0x00,
  0xa4, 0xf6, 0xff, 0xff, 0x10, 0x00, 0x00, 0x00, 0x1c, 0x00, 0x00, 0x00,
  0x20, 0x00, 0x00, 0x00, 0x24, 0x00, 0x00, 0x00, 0x01, 0x00, 0x00, 0x00,
  0x07, 0x00, 0x00, 0x00, 0x00, 0x00, 0x00, 0x00, 0x00, 0x00, 0x00, 0x00,
  0x01, 0x00, 0x00, 0x00, 0x5a, 0x86, 0x54, 0x3d, 0x01, 0x00, 0x00, 0x00,
  0x80, 0x24, 0xc7, 0x40, 0x01, 0x00, 0x00, 0x00, 0x27, 0x3f, 0xe0, 0xc0,
  0x60, 0x00, 0x00, 0x00, 0x73, 0x65, 0x71, 0x75, 0x65, 0x6e, 0x74, 0x69,
  0x61, 0x6c, 0x2f, 0x63, 0x6f, 0x6e, 0x76, 0x31, 0x64, 0x2f, 0x63, 0x6f,
  0x6e, 0x76, 0x31, 0x64, 0x2f, 0x45, 0x78, 0x70, 0x61, 0x6e, 0x64, 0x44,
  0x69, 0x6d, 0x73, 0x3b, 0x53, 0x74, 0x61, 0x74, 0x65, 0x66, 0x75, 0x6c,
  0x50, 0x61, 0x72, 0x74, 0x69, 0x74, 0x69, 0x6f, 0x6e, 0x65, 0x64, 0x43,
  0x61, 0x6c, 0x6c, 0x2f, 0x73, 0x65, 0x71, 0x75, 0x65, 0x6e, 0x74, 0x69,
  0x61, 0x6c, 0x2f, 0x63, 0x6f, 0x6e, 0x76, 0x31, 0x64, 0x2f, 0x63, 0x6f,
  0x6e, 0x76, 0x31, 0x64, 0x2f, 0x45, 0x78, 0x70, 0x61, 0x6e, 0x64, 0x44,
  0x69, 0x6d, 0x73, 0x31, 0x00, 0x00, 0x00, 0x00, 0x04, 0x00, 0x00, 0x00,
  0x01, 0x00, 0x00, 0x00, 0x01, 0x00, 0x00, 0x00, 0x32, 0x00, 0x00, 0x00,
  0x0d, 0x00, 0x00, 0x00, 0x82, 0xf7, 0xff, 0xff, 0x14, 0x00, 0x00, 0x00,
  0x14, 0x00, 0x00, 0x00, 0x0c, 0x00, 0x00, 0x00, 0x00, 0x00, 0x00, 0x02,
  0x70, 0x00, 0x00, 0x00, 0xfc, 0xf7, 0xff, 0xff, 0x63, 0x00, 0x00, 0x00,
  0x73, 0x65, 0x71, 0x75, 0x65, 0x6e, 0x74, 0x69, 0x61, 0x6c, 0x2f, 0x6d,
  0x61, 0x78, 0x5f, 0x70, 0x6f, 0x6f, 0x6c, 0x69, 0x6e, 0x67, 0x31, 0x64,
  0x5f, 0x31, 0x2f, 0x45, 0x78, 0x70, 0x61, 0x6e, 0x64, 0x44, 0x69, 0x6d,
  0x73, 0x3b, 0x53, 0x74, 0x61, 0x74, 0x65, 0x66, 0x75, 0x6c, 0x50, 0x61,
  0x72, 0x74, 0x69, 0x74, 0x69, 0x6f, 0x6e, 0x65, 0x64, 0x43, 0x61, 0x6c,
  0x6c, 0x2f, 0x73, 0x65, 0x71, 0x75, 0x65, 0x6e, 0x74, 0x69, 0x61, 0x6c,
  0x2f, 0x6d, 0x61, 0x78, 0x5f, 0x70, 0x6f, 0x6f, 0x6c, 0x69, 0x6e, 0x67,
  0x31, 0x64, 0x5f, 0x31, 0x2f, 0x45, 0x78, 0x70, 0x61, 0x6e, 0x64, 0x44,
  0x69, 0x6d, 0x73, 0x00, 0x01, 0x00, 0x00, 0x00, 0x04, 0x00, 0x00, 0x00,
  0x0e, 0xf8, 0xff, 0xff, 0x14, 0x00, 0x00, 0x00, 0x14, 0x00, 0x00, 0x00,
  0x0b, 0x00, 0x00, 0x00, 0x00, 0x00, 0x00, 0x02, 0x70, 0x00, 0x00, 0x00,
  0x88, 0xf8, 0xff, 0xff, 0x63, 0x00, 0x00, 0x00, 0x73, 0x65, 0x71, 0x75,
  0x65, 0x6e, 0x74, 0x69, 0x61, 0x6c, 0x2f, 0x63, 0x6f, 0x6e, 0x76, 0x31,
  0x64, 0x5f, 0x31, 0x2f, 0x63, 0x6f, 0x6e, 0x76, 0x31, 0x64, 0x2f, 0x45,
  0x78, 0x70, 0x61, 0x6e, 0x64, 0x44, 0x69, 0x6d, 0x73, 0x3b, 0x53, 0x74,
  0x61, 0x74, 0x65, 0x66, 0x75, 0x6c, 0x50, 0x61, 0x72, 0x74, 0x69, 0x74,
  0x69, 0x6f, 0x6e, 0x65, 0x64, 0x43, 0x61, 0x6c, 0x6c, 0x2f, 0x73, 0x65,
  0x71, 0x75, 0x65, 0x6e, 0x74, 0x69, 0x61, 0x6c, 0x2f, 0x63, 0x6f, 0x6e,
  0x76, 0x31, 0x64, 0x5f, 0x31, 0x2f, 0x63, 0x6f, 0x6e, 0x76, 0x31, 0x64,
  0x2f, 0x45, 0x78, 0x70, 0x61, 0x6e, 0x64, 0x44, 0x69, 0x6d, 0x73, 0x00,
  0x01, 0x00, 0x00, 0x00, 0x04, 0x00, 0x00, 0x00, 0x9a, 0xf8, 0xff, 0xff,
  0x14, 0x00, 0x00, 0x00, 0x14, 0x00, 0x00, 0x00, 0x0a, 0x00, 0x00, 0x00,
  0x00, 0x00, 0x00, 0x02, 0x6c, 0x00, 0x00, 0x00, 0x14, 0xf9, 0xff, 0xff,
  0x5f, 0x00, 0x00, 0x00, 0x73, 0x65, 0x71, 0x75, 0x65, 0x6e, 0x74, 0x69,
  0x61, 0x6c, 0x2f, 0x6d, 0x61, 0x78, 0x5f, 0x70, 0x6f, 0x6f, 0x6c, 0x69,
  0x6e, 0x67, 0x31, 0x64, 0x2f, 0x45, 0x78, 0x70, 0x61, 0x6e, 0x64, 0x44,
  0x69, 0x6d, 0x73, 0x3b, 0x53, 0x74, 0x61, 0x74, 0x65, 0x66, 0x75, 0x6c,
  0x50, 0x61, 0x72, 0x74, 0x69, 0x74, 0x69, 0x6f, 0x6e, 0x65, 0x64, 0x43,
  0x61, 0x6c, 0x6c, 0x2f, 0x73, 0x65, 0x71, 0x75, 0x65, 0x6e, 0x74, 0x69,
  0x61, 0x6c, 0x2f, 0x6d, 0x61, 0x78, 0x5f, 0x70, 0x6f, 0x6f, 0x6c, 0x69,
  0x6e, 0x67, 0x31, 0x64, 0x2f, 0x45, 0x78, 0x70, 0x61, 0x6e, 0x64, 0x44,
  0x69, 0x6d, 0x73, 0x00, 0x01, 0x00, 0x00, 0x00, 0x04, 0x00, 0x00, 0x00,
  0x22, 0xf9, 0xff, 0xff, 0x14, 0x00, 0x00, 0x00, 0x14, 0x00, 0x00, 0x00,
  0x09, 0x00, 0x00, 0x00, 0x00, 0x00, 0x00, 0x02, 0x6c, 0x00, 0x00, 0x00,
  0x9c, 0xf9, 0xff, 0xff, 0x5f, 0x00, 0x00, 0x00, 0x73, 0x65, 0x71, 0x75,
  0x65, 0x6e, 0x74, 0x69, 0x61, 0x6c, 0x2f, 0x63, 0x6f, 0x6e, 0x76, 0x31,
  0x64, 0x2f, 0x63, 0x6f, 0x6e, 0x76, 0x31, 0x64, 0x2f, 0x45, 0x78, 0x70,
  0x61, 0x6e, 0x64, 0x44, 0x69, 0x6d, 0x73, 0x3b, 0x53, 0x74, 0x61, 0x74,
  0x65, 0x66, 0x75, 0x6c, 0x50, 0x61, 0x72, 0x74, 0x69, 0x74, 0x69, 0x6f,
  0x6e, 0x65, 0x64, 0x43, 0x61, 0x6c, 0x6c, 0x2f, 0x73, 0x65, 0x71, 0x75,
  0x65, 0x6e, 0x74, 0x69, 0x61, 0x6c, 0x2f, 0x63, 0x6f, 0x6e, 0x76, 0x31,
  0x64, 0x2f, 0x63, 0x6f, 0x6e, 0x76, 0x31, 0x64, 0x2f, 0x45, 0x78, 0x70,
  0x61, 0x6e, 0x64, 0x44, 0x69, 0x6d, 0x73, 0x00, 0x01, 0x00, 0x00, 0x00,
  0x04, 0x00, 0x00, 0x00, 0xaa, 0xf9, 0xff, 0xff, 0x14, 0x00, 0x00, 0x00,
  0x78, 0x01, 0x00, 0x00, 0x08, 0x00, 0x00, 0x00, 0x00, 0x00, 0x00, 0x09,
  0xc0, 0x01, 0x00, 0x00, 0x9c, 0xf9, 0xff, 0xff, 0x10, 0x00, 0x00, 0x00,
  0x94, 0x00, 0x00, 0x00, 0xd4, 0x00, 0x00, 0x00, 0x14, 0x01, 0x00, 0x00,
  0x10, 0x00, 0x00, 0x00, 0x00, 0x00, 0x00, 0x00, 0x00, 0x00, 0x00, 0x00,
  0x00, 0x00, 0x00, 0x00, 0x00, 0x00, 0x00, 0x00, 0x00, 0x00, 0x00, 0x00,
  0x00, 0x00, 0x00, 0x00, 0x00, 0x00, 0x00, 0x00, 0x00, 0x00, 0x00, 0x00,
  0x00, 0x00, 0x00, 0x00, 0x00, 0x00, 0x00, 0x00, 0x00, 0x00, 0x00, 0x00,
  0x00, 0x00, 0x00, 0x00, 0x00, 0x00, 0x00, 0x00, 0x00, 0x00, 0x00, 0x00,
  0x00, 0x00, 0x00, 0x00, 0x00, 0x00, 0x00, 0x00, 0x00, 0x00, 0x00, 0x00,
  0x00, 0x00, 0x00, 0x00, 0x00, 0x00, 0x00, 0x00, 0x00, 0x00, 0x00, 0x00,
  0x00, 0x00, 0x00, 0x00, 0x00, 0x00, 0x00, 0x00, 0x00, 0x00, 0x00, 0x00,
  0x00, 0x00, 0x00, 0x00, 0x00, 0x00, 0x00, 0x00, 0x00, 0x00, 0x00, 0x00,
  0x00, 0x00, 0x00, 0x00, 0x00, 0x00, 0x00, 0x00, 0x00, 0x00, 0x00, 0x00,
  0x00, 0x00, 0x00, 0x00, 0x00, 0x00, 0x00, 0x00, 0x00, 0x00, 0x00, 0x00,
  0x00, 0x00, 0x00, 0x00, 0x10, 0x00, 0x00, 0x00, 0xdc, 0xa8, 0xad, 0x3b,
  0xa3, 0x70, 0x98, 0x3c, 0x53, 0x1e, 0xcb, 0x3b, 0xeb, 0x67, 0x0f, 0x3c,
  0x6d, 0x3e, 0x09, 0x3c, 0x00, 0x9d, 0x60, 0x3c, 0x35, 0xcf, 0x27, 0x3c,
  0xf6, 0x80, 0x3a, 0x3c, 0x6f, 0x51, 0xf9, 0x3b, 0x2e, 0xe2, 0x21, 0x3c,
  0x88, 0x1b, 0xaf, 0x3b, 0x03, 0x49, 0x3a, 0x3c, 0x51, 0x93, 0x12, 0x3c,
  0x95, 0x69, 0x30, 0x3c, 0x77, 0x5a, 0x19, 0x3c, 0x4b, 0xf8, 0xa7, 0x3b,
  0x10, 0x00, 0x00, 0x00, 0x9d, 0x2b, 0x20, 0x3f, 0xd4, 0xa0, 0x11, 0x3f,
  0x2c, 0x79, 0x35, 0x3f, 0x82, 0xc9, 0xd7, 0x3e, 0xeb, 0x8a, 0xe8, 0x3e,
  0x5a, 0x74, 0xcd, 0x3e, 0x96, 0x98, 0xa7, 0x3e, 0x0c, 0x36, 0xb2, 0x3e,
  0xf5, 0x9d, 0x0e, 0x3f, 0x4f, 0xb4, 0xe0, 0x3e, 0x8d, 0x69, 0x8c, 0x3e,
  0xa0, 0xbb, 0x4f, 0x3e, 0x03, 0x69, 0x0b, 0x3f, 0xa7, 0xb4, 0x08, 0x3f,
  0xa8, 0x20, 0x18, 0x3f, 0x81, 0xb3, 0x03, 0x3f, 0x10, 0x00, 0x00, 0x00,
  0x8a, 0x4d, 0x2c, 0xbf, 0xc2, 0x3f, 0x17, 0xc0, 0x16, 0x88, 0x49, 0xbf,
  0x1b, 0x49, 0x8e, 0xbf, 0xf0, 0x2b, 0x88, 0xbf, 0xc6, 0xdb, 0xde, 0xbf,
  0x97, 0x7f, 0xa6, 0xbf, 0xf4, 0x0b, 0xb9, 0xbf, 0xcc, 0x5e, 0x77, 0xbf,
  0x6a, 0x9e, 0xa0, 0xbf, 0x51, 0xbd, 0x2d, 0xbf, 0x71, 0xd4, 0xb8, 0xbf,
  0x2a, 0x6e, 0x91, 0xbf, 0xc2, 0x08, 0xaf, 0xbf, 0xc2, 0x27, 0x98, 0xbf,
  0x5a, 0xa8, 0x26, 0xbf, 0x4d, 0x00, 0x00, 0x00, 0x73, 0x65, 0x71, 0x75,
  0x65, 0x6e, 0x74, 0x69, 0x61, 0x6c, 0x2f, 0x63, 0x6f, 0x6e, 0x76, 0x31,
  0x64, 0x5f, 0x31, 0x2f, 0x63, 0x6f, 0x6e, 0x76, 0x31, 0x64, 0x3b, 0x53,
  0x74, 0x61, 0x74, 0x65, 0x66, 0x75, 0x6c, 0x50, 0x61, 0x72, 0x74, 0x69,
  0x74, 0x69, 0x6f, 0x6e, 0x65, 0x64, 0x43, 0x61, 0x6c, 0x6c, 0x2f, 0x73,
  0x65, 0x71, 0x75, 0x65, 0x6e, 0x74, 0x69, 0x61, 0x6c, 0x2f, 0x63, 0x6f,
  0x6e, 0x76, 0x31, 0x64, 0x5f, 0x31, 0x2f, 0x63, 0x6f, 0x6e, 0x76, 0x31,
  0x64, 0x00, 0x00, 0x00, 0x04, 0x00, 0x00, 0x00, 0x10, 0x00, 0x00, 0x00,
  0x01, 0x00, 0x00, 0x00, 0x03, 0x00, 0x00, 0x00, 0x08, 0x00, 0x00, 0x00,
  0x92, 0xfb, 0xff, 0xff, 0x14, 0x00, 0x00, 0x00, 0xd4, 0x00, 0x00, 0x00,
  0x07, 0x00, 0x00, 0x00, 0x00, 0x00, 0x00, 0x09, 0x18, 0x01, 0x00, 0x00,
  0x84, 0xfb, 0xff, 0xff, 0x10, 0x00, 0x00, 0x00, 0x50, 0x00, 0x00, 0x00,
  0x70, 0x00, 0x00, 0x00, 0x90, 0x00, 0x00, 0x00, 0x08, 0x00, 0x00, 0x00,
  0x00, 0x00, 0x00, 0x00, 0x00, 0x00, 0x00, 0x00, 0x00, 0x00, 0x00, 0x00,
  0x00, 0x00, 0x00, 0x00, 0x00, 0x00, 0x00, 0x00, 0x00, 0x00, 0x00, 0x00,
  0x00, 0x00, 0x00, 0x00, 0x00, 0x00, 0x00, 0x00, 0x00, 0x00, 0x00, 0x00,
  0x00, 0x00, 0x00, 0x00, 0x00, 0x00, 0x00, 0x00, 0x00, 0x00, 0x00, 0x00,
  0x00, 0x00, 0x00, 0x00, 0x00, 0x00, 0x00, 0x00, 0x00, 0x00, 0x00, 0x00,
  0x00, 0x00, 0x00, 0x00, 0x08, 0x00, 0x00, 0x00, 0x5f, 0xe9, 0x1e, 0x3c,
  0x88, 0x4e, 0x16, 0x3c, 0xbb, 0x41, 0x21, 0x3b, 0x23, 0xad, 0x9a, 0x3b,
  0x52, 0x33, 0x9f, 0x3b, 0x3d, 0x6b, 0x89, 0x3b, 0x19, 0x6e, 0x03, 0x3c,
  0xe6, 0x64, 0x1e, 0x3c, 0x08, 0x00, 0x00, 0x00, 0xc4, 0x81, 0x4c, 0x3f,
  0xd2, 0xf9, 0x81, 0x3e, 0x38, 0xff, 0x9f, 0x3e, 0xc9, 0x77, 0x19, 0x3f,
  0xeb, 0xf4, 0x1d, 0x3f, 0x67, 0x58, 0x08, 0x3f, 0xcb, 0xbb, 0x7e, 0x3f,
  0xd4, 0x8d, 0xce, 0x3e, 0x08, 0x00, 0x00, 0x00, 0x8c, 0xab, 0x9d, 0xbf,
  0xeb, 0x21, 0x95, 0xbf, 0x5f, 0xd8, 0x8c, 0xbe, 0x5c, 0x8e, 0x10, 0xbf,
  0x93, 0x6a, 0x1c, 0xbf, 0x6d, 0xcd, 0xd9, 0xbe, 0x3d, 0x67, 0x82, 0xbf,
  0x1c, 0x28, 0x9d, 0xbf, 0x49, 0x00, 0x00, 0x00, 0x73, 0x65, 0x71, 0x75,
  0x65, 0x6e, 0x74, 0x69, 0x61, 0x6c, 0x2f, 0x63, 0x6f, 0x6e, 0x76, 0x31,
  0x64, 0x2f, 0x63, 0x6f, 0x6e, 0x76, 0x31, 0x64, 0x3b, 0x53, 0x74, 0x61,
  0x74, 0x65, 0x66, 0x75, 0x6c, 0x50, 0x61, 0x72, 0x74, 0x69, 0x74, 0x69,
  0x6f, 0x6e, 0x65, 0x64, 0x43, 0x61, 0x6c, 0x6c, 0x2f, 0x73, 0x65, 0x71,
  0x75, 0x65, 0x6e, 0x74, 0x69, 0x61, 0x6c, 0x2f, 0x63, 0x6f, 0x6e, 0x76,
  0x31, 0x64, 0x2f, 0x63, 0x6f, 0x6e, 0x76, 0x31, 0x64, 0x00, 0x00, 0x00,
  0x04, 0x00, 0x00, 0x00, 0x08, 0x00, 0x00, 0x00, 0x01, 0x00, 0x00, 0x00,
  0x03, 0x00, 0x00, 0x00, 0x0d, 0x00, 0x00, 0x00, 0xd2, 0xfc, 0xff, 0xff,
  0x14, 0x00, 0x00, 0x00, 0x4c, 0x00, 0x00, 0x00, 0x06, 0x00, 0x00, 0x00,
  0x00, 0x00, 0x00, 0x09, 0x90, 0x00, 0x00, 0x00, 0xc4, 0xfc, 0xff, 0xff,
  0x10, 0x00, 0x00, 0x00, 0x1c, 0x00, 0x00, 0x00, 0x20, 0x00, 0x00, 0x00,
  0x24, 0x00, 0x00, 0x00, 0x01, 0x00, 0x00, 0x00, 0x00, 0x00, 0x00, 0x00,
  0x00, 0x00, 0x00, 0x00, 0x00, 0x00, 0x00, 0x00, 0x01, 0x00, 0x00, 0x00,
  0x6c, 0xc4, 0x11, 0x3c, 0x01, 0x00, 0x00, 0x00, 0x65, 0x9e, 0x41, 0x3f,
  0x01, 0x00, 0x00, 0x00, 0xe3, 0xa0, 0x90, 0xbf, 0x49, 0x00, 0x00, 0x00,
  0x73, 0x65, 0x71, 0x75, 0x65, 0x6e, 0x74, 0x69, 0x61, 0x6c, 0x2f, 0x79,
  0x5f, 0x70, 0x72, 0x65, 0x64, 0x2f, 0x4d, 0x61, 0x74, 0x4d, 0x75, 0x6c,
  0x3b, 0x53, 0x74, 0x61, 0x74, 0x65, 0x66, 0x75, 0x6c, 0x50, 0x61, 0x72,
  0x74, 0x69, 0x74, 0x69, 0x6f, 0x6e, 0x65, 0x64, 0x43, 0x61, 0x6c, 0x6c,
  0x2f, 0x73, 0x65, 0x71, 0x75, 0x65, 0x6e, 0x74, 0x69, 0x61, 0x6c, 0x2f,
  0x79, 0x5f, 0x70, 0x72, 0x65, 0x64, 0x2f, 0x4d, 0x61, 0x74, 0x4d, 0x75,
  0x6c, 0x00, 0x00, 0x00, 0x02, 0x00, 0x00, 0x00, 0x04, 0x00, 0x00, 0x00,
  0xd0, 0x00, 0x00, 0x00, 0x82, 0xfd, 0xff, 0xff, 0x14, 0x00, 0x00, 0x00,
  0x30, 0x00, 0x00, 0x00, 0x05, 0x00, 0x00, 0x00, 0x00, 0x00, 0x00, 0x02,
  0x34, 0x00, 0x00, 0x00, 0xac, 0xfe, 0xff, 0xff, 0x08, 0x00, 0x00, 0x00,
  0x10, 0x00, 0x00, 0x00, 0x01, 0x00, 0x00, 0x00, 0x00, 0x00, 0x00, 0x00,
  0x00, 0x00, 0x00, 0x00, 0x01, 0x00, 0x00, 0x00, 0x6b, 0xc1, 0x84, 0x39,
  0x09, 0x00, 0x00, 0x00, 0x75, 0x6e, 0x6b, 0x6e, 0x6f, 0x77, 0x6e, 0x5f,
  0x34, 0x00, 0x00, 0x00, 0x01, 0x00, 0x00, 0x00, 0x04, 0x00, 0x00, 0x00,
  0xd2, 0xfd, 0xff, 0xff, 0x14, 0x00, 0x00, 0x00, 0xe4, 0x00, 0x00, 0x00,
  0x04, 0x00, 0x00, 0x00, 0x00, 0x00, 0x00, 0x02, 0xe8, 0x00, 0x00, 0x00,
  0xfc, 0xfe, 0xff, 0xff, 0x08, 0x00, 0x00, 0x00, 0x88, 0x00, 0x00, 0x00,
  0x10, 0x00, 0x00, 0x00, 0x00, 0x00, 0x00, 0x00, 0x00, 0x00, 0x00, 0x00,
  0x00, 0x00, 0x00, 0x00, 0x00, 0x00, 0x00, 0x00, 0x00, 0x00, 0x00, 0x00,
  0x00, 0x00, 0x00, 0x00, 0x00, 0x00, 0x00, 0x00, 0x00, 0x00, 0x00, 0x00,
  0x00, 0x00, 0x00, 0x00, 0x00, 0x00, 0x00, 0x00, 0x00, 0x00, 0x00, 0x00,
  0x00, 0x00, 0x00, 0x00, 0x00, 0x00, 0x00, 0x00, 0x00, 0x00, 0x00, 0x00,
  0x00, 0x00, 0x00, 0x00, 0x00, 0x00, 0x00, 0x00, 0x00, 0x00, 0x00, 0x00,
  0x00, 0x00, 0x00, 0x00, 0x00, 0x00, 0x00, 0x00, 0x00, 0x00, 0x00, 0x00,
  0x00, 0x00, 0x00, 0x00, 0x00, 0x00, 0x00, 0x00, 0x00, 0x00, 0x00, 0x00,
  0x00, 0x00, 0x00, 0x00, 0x00, 0x00, 0x00, 0x00, 0x00, 0x00, 0x00, 0x00,
  0x00, 0x00, 0x00, 0x00, 0x00, 0x00, 0x00, 0x00, 0x00, 0x00, 0x00, 0x00,
  0x00, 0x00, 0x00, 0x00, 0x00, 0x00, 0x00, 0x00, 0x00, 0x00, 0x00, 0x00,
  0x10, 0x00, 0x00, 0x00, 0xf1, 0xd4, 0x9d, 0x39, 0xd4, 0x8b, 0x8a, 0x3a,
  0x0f, 0x9b, 0xb8, 0x39, 0xe5, 0x55, 0x02, 0x3a, 0x5d, 0x78, 0xf9, 0x39,
  0x35, 0x24, 0x4c, 0x3a, 0xca, 0x83, 0x18, 0x3a, 0x5c, 0x81, 0x29, 0x3a,
  0x37, 0x98, 0xe2, 0x39, 0x08, 0x21, 0x13, 0x3a, 0xd5, 0x25, 0x9f, 0x39,
  0x82, 0x4e, 0x29, 0x3a, 0x57, 0x37, 0x05, 0x3a, 0x70, 0x55, 0x20, 0x3a,
  0x58, 0x60, 0x0b, 0x3a, 0x22, 0xa9, 0x98, 0x39, 0x09, 0x00, 0x00, 0x00,
  0x75, 0x6e, 0x6b, 0x6e, 0x6f, 0x77, 0x6e, 0x5f, 0x32, 0x00, 0x00, 0x00,
  0x01, 0x00, 0x00, 0x00, 0x10, 0x00, 0x00, 0x00, 0xd6, 0xfe, 0xff, 0xff,
  0x20, 0x00, 0x00, 0x00, 0x90, 0x00, 0x00, 0x00, 0x03, 0x00, 0x00, 0x00,
  0x00, 0x00, 0x00, 0x02, 0x94, 0x00, 0x00, 0x00, 0x0c, 0x00, 0x0c, 0x00,
  0x00, 0x00, 0x00, 0x00, 0x08, 0x00, 0x04, 0x00, 0x0c, 0x00, 0x00, 0x00,
  0x08, 0x00, 0x00, 0x00, 0x48, 0x00, 0x00, 0x00, 0x08, 0x00, 0x00, 0x00,
  0x00, 0x00, 0x00, 0x00, 0x00, 0x00, 0x00, 0x00, 0x00, 0x00, 0x00, 0x00,
  0x00, 0x00, 0x00, 0x00, 0x00, 0x00, 0x00, 0x00, 0x00, 0x00, 0x00, 0x00,
  0x00, 0x00, 0x00, 0x00, 0x00, 0x00, 0x00, 0x00, 0x00, 0x00, 0x00, 0x00,
  0x00, 0x00, 0x00, 0x00, 0x00, 0x00, 0x00, 0x00, 0x00, 0x00, 0x00, 0x00,
  0x00, 0x00, 0x00, 0x00, 0x00, 0x00, 0x00, 0x00, 0x00, 0x00, 0x00, 0x00,
  0x00, 0x00, 0x00, 0x00, 0x08, 0x00, 0x00, 0x00, 0xa9, 0xec, 0x03, 0x3a,
  0xd5, 0x8f, 0xf9, 0x39, 0x10, 0xdf, 0x05, 0x39, 0x8e, 0x68, 0x80, 0x39,
  0x0d, 0x2a, 0x84, 0x39, 0xda, 0x29, 0x64, 0x39, 0x4d, 0x38, 0xda, 0x39,
  0xaf, 0x7e, 0x03, 0x3a, 0x09, 0x00, 0x00, 0x00, 0x75, 0x6e, 0x6b, 0x6e,
  0x6f, 0x77, 0x6e, 0x5f, 0x30, 0x00, 0x00, 0x00, 0x01, 0x00, 0x00, 0x00,
  0x08, 0x00, 0x00, 0x00, 0x86, 0xff, 0xff, 0xff, 0x18, 0x00, 0x00, 0x00,
  0x18, 0x00, 0x00, 0x00, 0x02, 0x00, 0x00, 0x00, 0x00, 0x00, 0x00, 0x02,
  0x5c, 0x00, 0x00, 0x00, 0x04, 0x00, 0x04, 0x00, 0x04, 0x00, 0x00, 0x00,
  0x49, 0x00, 0x00, 0x00, 0x73, 0x65, 0x71, 0x75, 0x65, 0x6e, 0x74, 0x69,
  0x61, 0x6c, 0x2f, 0x66, 0x6c, 0x61, 0x74, 0x74, 0x65, 0x6e, 0x2f, 0x43,
  0x6f, 0x6e, 0x73, 0x74, 0x3b, 0x53, 0x74, 0x61, 0x74, 0x65, 0x66, 0x75,
  0x6c, 0x50, 0x61, 0x72, 0x74, 0x69, 0x74, 0x69, 0x6f, 0x6e, 0x65, 0x64,
  0x43, 0x61, 0x6c, 0x6c, 0x2f, 0x73, 0x65, 0x71, 0x75, 0x65, 0x6e, 0x74,
  0x69, 0x61, 0x6c, 0x2f, 0x66, 0x6c, 0x61, 0x74, 0x74, 0x65, 0x6e, 0x2f,
  0x43, 0x6f, 0x6e, 0x73, 0x74, 0x00, 0x00, 0x00, 0x01, 0x00, 0x00, 0x00,
  0x02, 0x00, 0x00, 0x00, 0x00, 0x00, 0x0e, 0x00, 0x18, 0x00, 0x14, 0x00,
  0x13, 0x00, 0x0c, 0x00, 0x08, 0x00, 0x04, 0x00, 0x0e, 0x00, 0x00, 0x00,
  0x20, 0x00, 0x00, 0x00, 0x58, 0x00, 0x00, 0x00, 0x01, 0x00, 0x00, 0x00,
  0x00, 0x00, 0x00, 0x09, 0x6c, 0x00, 0x00, 0x00, 0x0c, 0x00, 0x14, 0x00,
  0x10, 0x00, 0x0c, 0x00, 0x08, 0x00, 0x04, 0x00, 0x0c, 0x00, 0x00, 0x00,
  0x10, 0x00, 0x00, 0x00, 0x1c, 0x00, 0x00, 0x00, 0x20, 0x00, 0x00, 0x00,
  0x24, 0x00, 0x00, 0x00, 0x01, 0x00, 0x00, 0x00, 0x07, 0x00, 0x00, 0x00,
  0x00, 0x00, 0x00, 0x00, 0x00, 0x00, 0x00, 0x00, 0x01, 0x00, 0x00, 0x00,
  0x5a, 0x86, 0x54, 0x3d, 0x01, 0x00, 0x00, 0x00, 0x80, 0x24, 0xc7, 0x40,
  0x01, 0x00, 0x00, 0x00, 0x27, 0x3f, 0xe0, 0xc0, 0x19, 0x00, 0x00, 0x00,
  0x67, 0x61, 0x75, 0x73, 0x73, 0x69, 0x61, 0x6e, 0x5f, 0x6e, 0x6f, 0x69,
  0x73, 0x65, 0x5f, 0x69, 0x6e, 0x70, 0x75, 0x74, 0x5f, 0x69, 0x6e, 0x74,
  0x38, 0x00, 0x00, 0x00, 0x02, 0x00, 0x00, 0x00, 0x01, 0x00, 0x00, 0x00,
  0x8a, 0x02, 0x00, 0x00, 0x07, 0x00, 0x00, 0x00, 0x90, 0x00, 0x00, 0x00,
  0x70, 0x00, 0x00, 0x00, 0x50, 0x00, 0x00, 0x00, 0x3c, 0x00, 0x00, 0x00,
  0x28, 0x00, 0x00, 0x00, 0x18, 0x00, 0x00, 0x00, 0x04, 0x00, 0x00, 0x00,
  0xb4, 0xff, 0xff, 0xff, 0x06, 0x00, 0x00, 0x00, 0x02, 0x00, 0x00, 0x00,
  0x00, 0x00, 0x00, 0x06, 0xa8, 0xff, 0xff, 0xff, 0x72, 0x00, 0x00, 0x00,
  0x00, 0x00, 0x00, 0x72, 0xd0, 0xff, 0xff, 0xff, 0x19, 0x00, 0x00, 0x00,
  0x02, 0x00, 0x00, 0x00, 0x00, 0x00, 0x00, 0x19, 0xe0, 0xff, 0xff, 0xff,
  0x09, 0x00, 0x00, 0x00, 0x04, 0x00, 0x00, 0x00, 0x00, 0x00, 0x00, 0x09,
  0xf0, 0xff, 0xff, 0xff, 0x11, 0x00, 0x00, 0x00, 0x02, 0x00, 0x00, 0x00,
  0x00, 0x00, 0x00, 0x11, 0x0c, 0x00, 0x10, 0x00, 0x0f, 0x00, 0x00, 0x00,
  0x08, 0x00, 0x04, 0x00, 0x0c, 0x00, 0x00, 0x00, 0x03, 0x00, 0x00, 0x00,
  0x03, 0x00, 0x00, 0x00, 0x00, 0x00, 0x00, 0x03, 0x0c, 0x00, 0x0c, 0x00,
  0x0b, 0x00, 0x00, 0x00, 0x00, 0x00, 0x04, 0x00, 0x0c, 0x00, 0x00, 0x00,
  0x16, 0x00, 0x00, 0x00, 0x00, 0x00, 0x00, 0x16
};
unsigned int trained_tflite_len = 8048;
